{"version": "1.0", "truncation": null, "padding": null, "added_tokens": [{"id": 0, "content": "[PAD]", "single_word": false, "lstrip": false, "rstrip": false, "normalized": false, "special": true}, {"id": 1, "content": "[UNK]", "single_word": false, "lstrip": false, "rstrip": false, "normalized": false, "special": true}, {"id": 2, "content": "[BOS]", "single_word": false, "lstrip": false, "rstrip": false, "normalized": false, "special": true}, {"id": 3, "content": "[EOS]", "single_word": false, "lstrip": false, "rstrip": false, "normalized": false, "special": true}], "normalizer": {"type": "Sequence", "normalizers": [{"type": "NFD"}, {"type": "Lowercase"}, {"type": "StripAccents"}]}, "pre_tokenizer": {"type": "Whitespace"}, "post_processor": null, "decoder": null, "model": {"type": "BPE", "dropout": null, "unk_token": "[UNK]", "continuing_subword_prefix": null, "end_of_word_suffix": null, "fuse_unk": false, "byte_fallback": false, "ignore_merges": false, "vocab": {"[PAD]": 0, "[UNK]": 1, "[BOS]": 2, "[EOS]": 3, "#": 4, "%": 5, "&": 6, "'": 7, "(": 8, ")": 9, "*": 10, "+": 11, ",": 12, "-": 13, ".": 14, "/": 15, "0": 16, "1": 17, "2": 18, "3": 19, "4": 20, "5": 21, "6": 22, "7": 23, "8": 24, "9": 25, ":": 26, ";": 27, "<": 28, "=": 29, ">": 30, "?": 31, "@": 32, "[": 33, "]": 34, "_": 35, "a": 36, "b": 37, "c": 38, "d": 39, "e": 40, "f": 41, "g": 42, "h": 43, "i": 44, "j": 45, "k": 46, "l": 47, "m": 48, "n": 49, "o": 50, "p": 51, "q": 52, "r": 53, "s": 54, "t": 55, "u": 56, "v": 57, "w": 58, "x": 59, "y": 60, "z": 61, "~": 62, "\u2013": 63, "\u2018": 64, "\u2019": 65, "\u201c": 66, "\u201d": 67, "\u2022": 68, "\u2192": 69, "\u25aa": 70, "\ufb01": 71, "..": 72, "in": 73, "th": 74, "en": 75, "an": 76, "the": 77, "on": 78, "re": 79, "at": 80, "er": 81, "al": 82, "....": 83, "or": 84, "of": 85, "st": 86, "ed": 87, "ent": 88, "it": 89, "ion": 90, "ing": 91, "es": 92, "ic": 93, "il": 94, "ar": 95, "and": 96, "ro": 97, "as": 98, "........": 99, "to": 100, "ment": 101, "is": 102, "le": 103, "co": 104, "ch": 105, "be": 106, "ation": 107, "id": 108, "for": 109, "ct": 110, "me": 111, "ra": 112, "su": 113, "el": 114, "pro": 115, "sh": 116, "ce": 117, "ill": 118, "un": 119, "mp": 120, "all": 121, "de": 122, "ab": 123, "ate": 124, "di": 125, "fic": 126, "................": 127, "sp": 128, "ut": 129, "se": 130, "ve": 131, "str": 132, "ay": 133, "per": 134, "will": 135, "rain": 136, "ag": 137, "ver": 138, "ho": 139, "ith": 140, "with": 141, "ance": 142, "are": 143, "by": 144, "ad": 145, "train": 146, "ol": 147, "ap": 148, "ac": 149, "ur": 150, "sch": 151, "et": 152, "ies": 153, "ary": 154, "state": 155, "con": 156, "lo": 157, "und": 158, "no": 159, "prov": 160, "ess": 161, "ul": 162, "ity": 163, "ri": 164, "te": 165, "um": 166, "ter": 167, "res": 168, "am": 169, "qu": 170, "la": 171, "if": 172, "training": 173, "pm": 174, "ec": 175, "shall": 176, "ex": 177, "he": 178, "ta": 179, "comp": 180, "ction": 181, "pl": 182, "ha": 183, "im": 184, "red": 185, "any": 186, "distr": 187, "ict": 188, "ital": 189, "ers": 190, "ene": 191, "lement": 192, "iv": 193, "................................": 194, "district": 195, "ard": 196, "fici": 197, "ti": 198, "cent": 199, "ir": 200, "up": 201, "ig": 202, "mm": 203, "sk": 204, "ect": 205, "od": 206, "ort": 207, "spital": 208, "hospital": 209, "provid": 210, "nh": 211, "bene": 212, "insu": 213, "skill": 214, "go": 215, "po": 216, "under": 217, "ive": 218, "ther": 219, "comm": 220, "nhpm": 221, "ated": 222, "ase": 223, "vel": 224, "day": 225, "emp": 226, "so": 227, "ates": 228, "par": 229, "tr": 230, "benefici": 231, "imp": 232, "ial": 233, "pre": 234, "ool": 235, "ass": 236, "school": 237, "mo": 238, "port": 239, "fro": 240, "int": 241, "from": 242, "ev": 243, "fo": 244, "sche": 245, "ib": 246, "20": 247, "rs": 248, "end": 249, "ma": 250, "able": 251, "bas": 252, "us": 253, "fication": 254, "age": 255, "du": 256, "we": 257, "ste": 258, "mon": 259, "scheme": 260, "ly": 261, "out": 262, "ii": 263, "ms": 264, "implement": 265, "ud": 266, "gh": 267, "rance": 268, "ip": 269, "enc": 270, "cand": 271, "candid": 272, "00": 273, "ure": 274, "not": 275, "ail": 276, "anel": 277, "have": 278, "af": 279, "ber": 280, "spec": 281, "empanel": 282, "min": 283, "insurance": 284, "iz": 285, "op": 286, "ition": 287, "ility": 288, "beneficiary": 289, "ugh": 290, "that": 291, "requ": 292, "cation": 293, "cla": 294, "man": 295, "vern": 296, "govern": 297, "inst": 298, "ust": 299, "form": 300, "ied": 301, "riev": 302, "av": 303, "li": 304, "reg": 305, "dec": 306, "government": 307, "griev": 308, "claim": 309, "ke": 310, "other": 311, "rough": 312, "been": 313, "unt": 314, "through": 315, "ser": 316, "assess": 317, "cer": 318, "wh": 319, "level": 320, "inc": 321, "low": 322, "part": 323, "ok": 324, "avail": 325, "get": 326, "has": 327, "itte": 328, "amil": 329, "committe": 330, "ne": 331, "itor": 332, "ident": 333, "meal": 334, "famil": 335, "may": 336, "ities": 337, "proc": 338, "case": 339, "fin": 340, "time": 341, "offic": 342, "sec": 343, "uld": 344, "do": 345, "agenc": 346, "ge": 347, "wor": 348, "edu": 349, "sa": 350, "alth": 351, "health": 352, "ical": 353, "food": 354, "committee": 355, "au": 356, "serv": 357, "can": 358, "resp": 359, "ord": 360, "sha": 361, "gu": 362, "ification": 363, "ject": 364, "sal": 365, "also": 366, "mem": 367, "such": 368, "grievance": 369, "ral": 370, "ence": 371, "ium": 372, "ould": 373, "ified": 374, "based": 375, "med": 376, "pay": 377, "ack": 378, "work": 379, "cook": 380, "one": 381, "central": 382, "candidates": 383, "its": 384, "ments": 385, "company": 386, "ant": 387, "ational": 388, "add": 389, "monitor": 390, "mid": 391, "share": 392, "istr": 393, "cost": 394, "implementation": 395, "lin": 396, "ator": 397, "gra": 398, "ich": 399, "ision": 400, "special": 401, "ear": 402, "guid": 403, "gr": 404, "trust": 405, "dat": 406, "ensu": 407, "monitoring": 408, "led": 409, "pr": 410, "sup": 411, "etc": 412, "requi": 413, "which": 414, "education": 415, "hel": 416, "ist": 417, "ines": 418, "ctor": 419, "dire": 420, "schools": 421, "ck": 422, "fol": 423, "num": 424, "ices": 425, "appl": 426, "ns": 427, "ible": 428, "pri": 429, "this": 430, "rece": 431, "stru": 432, "tak": 433, "follow": 434, "ach": 435, "bo": 436, "ia": 437, "rele": 438, "201": 439, "within": 440, "guidel": 441, "prem": 442, "fer": 443, "sy": 444, "approv": 445, "qual": 446, "tail": 447, "their": 448, "detail": 449, "ob": 450, "compla": 451, "guidelines": 452, "syste": 453, "10": 454, "anc": 455, "tran": 456, "io": 457, "empanelment": 458, "incl": 459, "process": 460, "number": 461, "pa": 462, "ons": 463, "should": 464, "set": 465, "................................................................": 466, "kit": 467, "pmk": 468, "family": 469, "agency": 470, "cum": 471, "tre": 472, "whe": 473, "indi": 474, "issu": 475, "hospitals": 476, "days": 477, "assessment": 478, "ow": 479, "act": 480, "fac": 481, "ability": 482, "provided": 483, "addition": 484, "premium": 485, "mis": 486, "ann": 487, "project": 488, "pres": 489, "tar": 490, "states": 491, "ministr": 492, "complaint": 493, "dis": 494, "vy": 495, "ice": 496, "data": 497, "treat": 498, "fra": 499, "devel": 500, "ution": 501, "ign": 502, "pmkvy": 503, "develop": 504, "national": 505, "oper": 506, "est": 507, "fund": 508, "ted": 509, "year": 510, "pers": 511, "certi": 512, "system": 513, "grain": 514, "sub": 515, "available": 516, "applic": 517, "treatment": 518, "there": 519, "tot": 520, "ensure": 521, "chen": 522, "acc": 523, "urs": 524, "auth": 525, "target": 526, "fe": 527, "rpl": 528, "sc": 529, "ward": 530, "count": 531, "very": 532, "need": 533, "kitchen": 534, "30": 535, "exec": 536, "redres": 537, "agement": 538, "after": 539, "taken": 540, "details": 541, "grains": 542, "md": 543, "ph": 544, "amo": 545, "ctions": 546, "member": 547, "development": 548, ").": 549, "15": 550, "cu": 551, "des": 552, "ty": 553, "ong": 554, "cted": 555, "account": 556, "insure": 557, "nsd": 558, "india": 559, "redressal": 560, "amount": 561, "inform": 562, "ative": 563, "aff": 564, "support": 565, "insurer": 566, "indu": 567, "execut": 568, "cr": 569, "care": 570, "card": 571, "dur": 572, "ting": 573, "nsdc": 574, "progra": 575, "igh": 576, "services": 577, "following": 578, "ub": 579, "ide": 580, "peri": 581, "month": 582, "ized": 583, "docu": 584, "grc": 585, "vi": 586, "inter": 587, "report": 588, "rol": 589, "lock": 590, "empanelled": 591, "includ": 592, "mdm": 593, "del": 594, "depart": 595, "decision": 596, "same": 597, "receiv": 598, "author": 599, "nor": 600, "sion": 601, "ings": 602, "team": 603, "lementary": 604, "management": 605, "instit": 606, "ally": 607, "trainers": 608, "ibility": 609, "total": 610, "ci": 611, "job": 612, "mand": 613, "tra": 614, "was": 615, "ild": 616, "ations": 617, "head": 618, "candidate": 619, "facil": 620, "ast": 621, "ef": 622, "elementary": 623, "mat": 624, "pe": 625, "chan": 626, "respons": 627, "ld": 628, "ents": 629, "aries": 630, "ective": 631, "gro": 632, "hold": 633, "officer": 634, "line": 635, "required": 636, "50": 637, "rec": 638, "elig": 639, "crit": 640, "bers": 641, "pen": 642, "pack": 643, "meet": 644, "propo": 645, "provider": 646, "skilling": 647, "payment": 648, "department": 649, "ection": 650, "use": 651, "abo": 652, "quality": 653, "during": 654, "ame": 655, "fi": 656, "ener": 657, "abl": 658, "verification": 659, "availability": 660, "additional": 661, "certification": 662, "industr": 663, "),": 664, "tw": 665, "tend": 666, "only": 667, "iii": 668, "present": 669, "program": 670, "norms": 671, "criter": 672, "mit": 673, "pat": 674, "vis": 675, "ret": 676, "being": 677, "aga": 678, "adha": 679, "provide": 680, "beneficiaries": 681, "let": 682, "ateg": 683, "projects": 684, "information": 685, "including": 686, "adhaar": 687, "cap": 688, "non": 689, "rel": 690, "districts": 691, "implementing": 692, "approval": 693, "criteria": 694, "against": 695, "action": 696, "giv": 697, "gener": 698, "over": 699, "tri": 700, "ering": 701, "ite": 702, "condu": 703, "families": 704, "officers": 705, "struct": 706, "12": 707, "aadhaar": 708, "block": 709, "fun": 710, "eng": 711, "these": 712, "ree": 713, "ile": 714, "role": 715, "medical": 716, "paid": 717, "where": 718, "executive": 719, "14": 720, "oj": 721, "pra": 722, "post": 723, "funds": 724, "ful": 725, "om": 726, "ual": 727, "ana": 728, "they": 729, "char": 730, "tain": 731, "centre": 732, "claims": 733, "assessor": 734, "members": 735, "release": 736, "air": 737, "back": 738, "mar": 739, "stud": 740, "coun": 741, "arding": 742, "portal": 743, "received": 744, "above": 745, "programme": 746, "11": 747, "dg": 748, "hc": 749, "ish": 750, "chec": 751, "child": 752, "sur": 753, "ell": 754, "loy": 755, "list": 756, "secret": 757, "industry": 758, "check": 759, "secretary": 760, "each": 761, "os": 762, "appro": 763, "centres": 764, "approved": 765, "period": 766, "record": 767, "given": 768, "13": 769, "name": 770, "ise": 771, "least": 772, "made": 773, "identification": 774, "require": 775, "ious": 776, "activ": 777, "group": 778, "structure": 779, "categ": 780, "ehc": 781, "high": 782, "nha": 783, "pend": 784, "ys": 785, "inv": 786, "dif": 787, "ives": 788, "commun": 789, "install": 790, "regul": 791, "agencies": 792, "transa": 793, "document": 794, "penal": 795, "categor": 796, "ehcp": 797, "car": 798, "cas": 799, "mod": 800, "ned": 801, "ocation": 802, "pur": 803, "ren": 804, "ss": 805, "val": 806, "org": 807, "stand": 808, "sector": 809, "hours": 810, "like": 811, "financ": 812, "order": 813, "director": 814, "prior": 815, "issued": 816, "design": 817, "facilities": 818, "eligible": 819, "ake": 820, "done": 821, "sed": 822, "tified": 823, "online": 824, "ating": 825, "ited": 826, "lear": 827, "bet": 828, "msde": 829, "ization": 830, "2019": 831, "applicable": 832, "organ": 833, "cal": 834, "cro": 835, "call": 836, "ew": 837, "equ": 838, "hand": 839, "ient": 840, "eld": 841, "imum": 842, "employ": 843, "mode": 844, "respective": 845, "mission": 846, "annex": 847, "view": 848, "related": 849, "installment": 850, "financial": 851, "18": 852, "every": 853, "ific": 854, "nec": 855, "tion": 856, "then": 857, "stake": 858, "mechan": 859, "dies": 860, "specific": 861, "decid": 862, "final": 863, "ances": 864, "application": 865, "field": 866, "children": 867, "activities": 868, "necess": 869, "stakehold": 870, "bal": 871, "lif": 872, "pol": 873, "ts": 874, "insp": 875, "ens": 876, "enrol": 877, "reas": 878, "offici": 879, "elf": 880, "ween": 881, "operator": 882, "establ": 883, "proposal": 884, "between": 885, "annexure": 886, "mechanis": 887, "necessary": 888, "establish": 889, "25": 890, "aid": 891, "cre": 892, "dal": 893, "ning": 894, "ind": 895, "than": 896, "reco": 897, "dig": 898, "administr": 899, "fore": 900, "basis": 901, "used": 902, "ubl": 903, "deli": 904, "inte": 905, "sto": 906, "staff": 907, "allow": 908, "plan": 909, "web": 910, "request": 911, "regarding": 912, "isting": 913, "................................................................................................": 914, "ojt": 915, "delivery": 916, "/-": 917, "br": 918, "gn": 919, "gy": 920, "ged": 921, "jection": 922, "nut": 923, "ric": 924, "war": 925, "infra": 926, "attend": 927, "along": 928, "icy": 929, "ship": 930, "vest": 931, "appe": 932, "provision": 933, "point": 934, "were": 935, "helpers": 936, "person": 937, "accred": 938, "valid": 939, "policy": 940, "digital": 941, "infrastructure": 942, "appeal": 943, "16": 944, "put": 945, "pla": 946, "sid": 947, "invest": 948, "providers": 949, "main": 950, "cooking": 951, "institut": 952, "transaction": 953, "decided": 954, "recogn": 955, "investig": 956, "24": 957, "cl": 958, "date": 959, "em": 960, "fir": 961, "publ": 962, "ry": 963, "ssc": 964, "who": 965, "would": 966, "escro": 967, "short": 968, "ages": 969, "concer": 970, "take": 971, "compli": 972, "upon": 973, "gov": 974, "manag": 975, "atory": 976, "grant": 977, "sett": 978, "own": 979, "institution": 980, "eff": 981, "mitted": 982, "differ": 983, "regular": 984, "category": 985, "equip": 986, "mechanism": 987, "escrow": 988, "45": 989, "cc": 990, "ek": 991, "hi": 992, "review": 993, "mention": 994, "col": 995, "cover": 996, "ely": 997, "dee": 998, "util": 999, "home": 1000, "ety": 1001, "cont": 1002, "term": 1003, "benef": 1004, "more": 1005, "steering": 1006, "ency": 1007, "track": 1008, "two": 1009, "assessors": 1010, "nutr": 1011, "place": 1012, "public": 1013, "concerned": 1014, "award": 1015, "ban": 1016, "fa": 1017, "pul": 1018, "ran": 1019, "eness": 1020, "rejection": 1021, "core": 1022, "chair": 1023, "unit": 1024, "urse": 1025, "load": 1026, "ify": 1027, "partic": 1028, "suppl": 1029, "help": 1030, "ministry": 1031, "responsibility": 1032, "different": 1033, "nutrition": 1034, "500": 1035, "60": 1036, "aud": 1037, "rest": 1038, "ased": 1039, "allocation": 1040, "defin": 1041, "resol": 1042, "grievances": 1043, "whether": 1044, "complaints": 1045, "phys": 1046, "patient": 1047, "function": 1048, "students": 1049, "learning": 1050, "administrative": 1051, "attendance": 1052, "fci": 1053, "hary": 1054, "ner": 1055, "sgrc": 1056, "iti": 1057, "leg": 1058, "chap": 1059, "cond": 1060, "ress": 1061, "mob": 1062, "identified": 1063, "urses": 1064, "meetings": 1065, "letter": 1066, "charge": 1067, "mark": 1068, "penalty": 1069, "defined": 1070, "chapter": 1071, "21": 1072, "22": 1073, "bed": 1074, "cor": 1075, "iste": 1076, "kh": 1077, "ps": 1078, "ura": 1079, "recomm": 1080, "represent": 1081, "before": 1082, "demand": 1083, "about": 1084, "uts": 1085, "olo": 1086, "constru": 1087, "existing": 1088, "providing": 1089, "soc": 1090, "ipt": 1091, "new": 1092, "working": 1093, "link": 1094, "receipt": 1095, "bodies": 1096, "responsible": 1097, "interest": 1098, "investigation": 1099, "govt": 1100, "haryana": 1101, "istered": 1102, "recommend": 1103, "38": 1104, "dated": 1105, "gap": 1106, "py": 1107, "var": 1108, "vant": 1109, "once": 1110, "ature": 1111, "courses": 1112, "sele": 1113, "moh": 1114, "due": 1115, "issues": 1116, "frame": 1117, "documents": 1118, "reports": 1119, "capac": 1120, "surg": 1121, "first": 1122, "compliance": 1123, "17": 1124, "27": 1125, "ei": 1126, "fw": 1127, "fed": 1128, "fur": 1129, "gence": 1130, "hub": 1131, "pt": 1132, "ures": 1133, "ved": 1134, "erg": 1135, "alu": 1136, "ication": 1137, "arter": 1138, "ised": 1139, "........................": 1140, "vergence": 1141, "convergence": 1142, "terr": 1143, "quarter": 1144, "common": 1145, "evalu": 1146, "using": 1147, "registered": 1148, "secc": 1149, "direct": 1150, "directed": 1151, "released": 1152, "relevant": 1153, "package": 1154, "packages": 1155, "general": 1156, "conducted": 1157, "counc": 1158, "cases": 1159, "standard": 1160, "mentioned": 1161, "mobile": 1162, "mohfw": 1163, "either": 1164, "ak": 1165, "awar": 1166, "cs": 1167, "her": 1168, "ik": 1169, "net": 1170, "side": 1171, "well": 1172, "atch": 1173, "ili": 1174, "asp": 1175, "course": 1176, "abase": 1177, "separ": 1178, "test": 1179, "experi": 1180, "plat": 1181, "upload": 1182, "week": 1183, "service": 1184, "graph": 1185, "database": 1186, "certific": 1187, "conduct": 1188, "dgno": 1189, "groups": 1190, "stores": 1191, "recognition": 1192, "particip": 1193, "construction": 1194, "capacity": 1195, "territor": 1196, "40": 1197, "ae": 1198, "cri": 1199, "fle": 1200, "less": 1201, "mary": 1202, "nic": 1203, "pare": 1204, "pia": 1205, "send": 1206, "ine": 1207, "instru": 1208, "ady": 1209, "trainer": 1210, "conv": 1211, "nodal": 1212, "tech": 1213, "teach": 1214, "tern": 1215, "tact": 1216, "distrib": 1217, "soci": 1218, "prepare": 1219, "found": 1220, "rsby": 1221, "registr": 1222, "certified": 1223, "primary": 1224, "taking": 1225, "igned": 1226, "feed": 1227, "roles": 1228, "delay": 1229, "matter": 1230, "pending": 1231, "inspection": 1232, "officio": 1233, "indic": 1234, "sscs": 1235, "manager": 1236, "settlement": 1237, "institutions": 1238, "various": 1239, "further": 1240, "council": 1241, "awareness": 1242, "platform": 1243, "aebas": 1244, "19": 1245, "100": 1246, "but": 1247, "cus": 1248, "ges": 1249, "hon": 1250, "sm": 1251, "ses": 1252, "self": 1253, "initi": 1254, "isa": 1255, "isation": 1256, "below": 1257, "union": 1258, "perform": 1259, "howe": 1260, "app": 1261, "ural": 1262, "contact": 1263, "skills": 1264, "requis": 1265, "ordin": 1266, "print": 1267, "princ": 1268, "needs": 1269, "affili": 1270, "tract": 1271, "facilit": 1272, "requirements": 1273, "purpo": 1274, "designated": 1275, "organiz": 1276, "stakeholders": 1277, "allowed": 1278, "emerg": 1279, "effective": 1280, "ology": 1281, "social": 1282, "hubs": 1283, "flex": 1284, "however": 1285, "36": 1286, "dgrc": 1287, "gard": 1288, "han": 1289, "les": 1290, "mes": 1291, "must": 1292, "our": 1293, "rat": 1294, "sent": 1295, "ya": 1296, "into": 1297, "orar": 1298, "ically": 1299, "toward": 1300, "che": 1301, "ceo": 1302, "dev": 1303, "second": 1304, "aged": 1305, "urn": 1306, "local": 1307, "ules": 1308, "open": 1309, "meals": 1310, "cooked": 1311, "helper": 1312, "apply": 1313, "years": 1314, "access": 1315, "authority": 1316, "functions": 1317, "full": 1318, "community": 1319, "balance": 1320, "enrolment": 1321, "accredited": 1322, "tracking": 1323, "physical": 1324, "certificate": 1325, "instructions": 1326, ".)": 1327, "bu": 1328, "jo": 1329, "lab": 1330, "ngrc": 1331, "pan": 1332, "ring": 1333, "rural": 1334, "saf": 1335, "ude": 1336, "vent": 1337, "vide": 1338, "ximum": 1339, "refer": 1340, "ready": 1341, "art": 1342, "ask": 1343, "coura": 1344, "produ": 1345, "percent": 1346, "areas": 1347, "contract": 1348, "location": 1349, "comple": 1350, "hafed": 1351, "irt": 1352, "mail": 1353, "maximum": 1354, "minimum": 1355, "decide": 1356, "gest": 1357, "nsq": 1358, "include": 1359, "submission": 1360, "receiving": 1361, "class": 1362, "colle": 1363, "awarding": 1364, "audit": 1365, "evaluation": 1366, "territories": 1367, "registration": 1368, "honorar": 1369, "gardens": 1370, "ratio": 1371, "joint": 1372, "honorarium": 1373, "29": 1374, "bro": 1375, "cle": 1376, "cur": 1377, "dhan": 1378, "gms": 1379, "har": 1380, "rice": 1381, "encoura": 1382, "repr": 1383, "atus": 1384, "stt": 1385, "entrepr": 1386, "arch": 1387, "sug": 1388, "ceed": 1389, "uni": 1390, "veget": 1391, "urship": 1392, "ulated": 1393, "lakh": 1394, "eneurship": 1395, "center": 1396, "prepar": 1397, "2020": 1398, "make": 1399, "auto": 1400, "prof": 1401, "detailed": 1402, "ministries": 1403, "operational": 1404, "targets": 1405, "mandatory": 1406, "equipment": 1407, "benefits": 1408, "framework": 1409, "experience": 1410, "purpose": 1411, "entrepreneurship": 1412, "28": 1413, "70": 1414, "bl": 1415, "bud": 1416, "batch": 1417, "ix": 1418, "iat": 1419, "king": 1420, "nature": 1421, "por": 1422, "ped": 1423, "pes": 1424, "rules": 1425, "sing": 1426, "score": 1427, "ving": 1428, "viz": 1429, "incent": 1430, "three": 1431, "offer": 1432, "offe": 1433, "ster": 1434, "status": 1435, "itation": 1436, "arran": 1437, "anding": 1438, "isl": 1439, "fortified": 1440, "sul": 1441, "search": 1442, "verified": 1443, "trained": 1444, "ult": 1445, "ext": 1446, "200": 1447, "000": 1448, "geo": 1449, "medium": 1450, "both": 1451, "board": 1452, "fraud": 1453, "submitted": 1454, "fees": 1455, "executives": 1456, "eligibility": 1457, "visit": 1458, "invol": 1459, "lifting": 1460, "reasons": 1461, "validation": 1462, "institutes": 1463, "resolution": 1464, "feedback": 1465, "requisite": 1466, "organizations": 1467, "devices": 1468, "nsqf": 1469, "suggest": 1470, "offered": 1471, "90": 1472, "ba": 1473, "free": 1474, "gin": 1475, "mal": 1476, "nd": 1477, "ose": 1478, "ration": 1479, "ties": 1480, "ured": 1481, "wise": 1482, "yes": 1483, "enu": 1484, "als": 1485, "already": 1486, "ics": 1487, "aring": 1488, "ross": 1489, "assu": 1490, "ises": 1491, "come": 1492, "susp": 1493, "prove": 1494, "proceed": 1495, "without": 1496, "across": 1497, "ried": 1498, "resour": 1499, "last": 1500, "improve": 1501, "ectiv": 1502, "assist": 1503, "schemes": 1504, "regist": 1505, "when": 1506, "identity": 1507, "dow": 1508, "media": 1509, "address": 1510, "ensuring": 1511, "qualification": 1512, "tranche": 1513, "facility": 1514, "desh": 1515, "types": 1516, "monthly": 1517, "authorization": 1518, "generation": 1519, "pradesh": 1520, "higher": 1521, "carried": 1522, "stakeholder": 1523, "reason": 1524, "branding": 1525, "maintain": 1526, "chairperson": 1527, "supply": 1528, "directly": 1529, "cribed": 1530, "techn": 1531, "distribution": 1532, "society": 1533, "prepared": 1534, "panch": 1535, "broad": 1536, "geograph": 1537, ".,": 1538, "31": 1539, "ca": 1540, "ces": 1541, "den": 1542, "him": 1543, "sl": 1544, "ush": 1545, "yg": 1546, "anal": 1547, "them": 1548, "reject": 1549, "atis": 1550, "ions": 1551, "room": 1552, "coordin": 1553, "chi": 1554, "idence": 1555, "radi": 1556, "show": 1557, "hour": 1558, "adv": 1559, "const": 1560, "among": 1561, "having": 1562, "upskilling": 1563, "master": 1564, "basic": 1565, "specified": 1566, "mantri": 1567, "finance": 1568, "serving": 1569, "held": 1570, "priv": 1571, "qualified": 1572, "systems": 1573, "trans": 1574, "transp": 1575, "annual": 1576, "thereof": 1577, "type": 1578, "meeting": 1579, "overall": 1580, "engaged": 1581, "pradhan": 1582, "approve": 1583, "carry": 1584, "model": 1585, "establishment": 1586, "provisions": 1587, "separate": 1588, "testing": 1589, "princip": 1590, "facilitate": 1591, "encouraged": 1592, "baj": 1593, "proceedings": 1594, "600": 1595, "aver": 1596, "clock": 1597, "da": 1598, "econ": 1599, "his": 1600, "ian": 1601, "ngo": 1602, "pho": 1603, "sof": 1604, "satis": 1605, "task": 1606, "wa": 1607, "thera": 1608, "refund": 1609, "atives": 1610, "ery": 1611, "ediat": 1612, "ily": 1613, "round": 1614, "ash": 1615, "chann": 1616, "shg": 1617, "abs": 1618, "vet": 1619, "agree": 1620, "consid": 1621, "nomin": 1622, "amin": 1623, "ected": 1624, "server": 1625, "incident": 1626, "procedu": 1627, "served": 1628, "respon": 1629, "cooks": 1630, "centralized": 1631, "earli": 1632, "book": 1633, "paediat": 1634, "setting": 1635, "prescribed": 1636, "discharge": 1637, "targeted": 1638, "ight": 1639, "ilding": 1640, "proposed": 1641, "tware": 1642, "capt": 1643, "pract": 1644, "fully": 1645, "records": 1646, "purch": 1647, "employment": 1648, "deeos": 1649, "bank": 1650, "representative": 1651, "network": 1652, "affiliated": 1653, "emergency": 1654, "flexibility": 1655, "building": 1656, "safety": 1657, "percentage": 1658, "budget": 1659, "arrange": 1660, "register": 1661, "chief": 1662, "private": 1663, "average": 1664, "econom": 1665, "photo": 1666, "software": 1667, "procedures": 1668, "paediatric": 1669, "09": 1670, "26": 1671, "39": 1672, "96": 1673, "base": 1674, "cau": 1675, "cvet": 1676, "ds": 1677, "fl": 1678, "fut": 1679, "jan": 1680, "lac": 1681, "lim": 1682, "nal": 1683, "ncvet": 1684, "ot": 1685, "oil": 1686, "tim": 1687, "vii": 1688, "wr": 1689, "wom": 1690, "yan": 1691, "yoj": 1692, "enance": 1693, "real": 1694, "ater": 1695, "stip": 1696, "entit": 1697, "icu": 1698, "copy": 1699, "cho": 1700, "promo": 1701, "deter": 1702, "depending": 1703, "see": 1704, "house": 1705, "resident": 1706, "expen": 1707, "plann": 1708, "ficient": 1709, "ects": 1710, "pow": 1711, "some": 1712, "intenance": 1713, "maintenance": 1714, "urement": 1715, "manner": 1716, "certain": 1717, "committees": 1718, "office": 1719, "specialist": 1720, "2013": 1721, "setup": 1722, "induction": 1723, "mater": 1724, "ground": 1725, "charges": 1726, "student": 1727, "appropri": 1728, "requirement": 1729, "communication": 1730, "cash": 1731, "accreditation": 1732, "institute": 1733, "market": 1734, "corpor": 1735, "aspects": 1736, "teacher": 1737, "towards": 1738, "constit": 1739, "earlier": 1740, "cause": 1741, "future": 1742, "women": 1743, "stipulated": 1744, "determin": 1745, "23": 1746, "300": 1747, "bio": 1748, "cch": 1749, "clin": 1750, "dail": 1751, "eco": 1752, "fficient": 1753, "just": 1754, "ksh": 1755, "lar": 1756, "mul": 1757, "menu": 1758, "nam": 1759, "ple": 1760, "rates": 1761, "tent": 1762, "turn": 1763, "ware": 1764, "yo": 1765, "...": 1766, "inary": 1767, "tha": 1768, "rect": 1769, "resul": 1770, ".....": 1771, "edure": 1772, "rodu": 1773, "raised": 1774, "prog": 1775, "proper": 1776, "shirt": 1777, "sharing": 1778, "cep": 1779, "mples": 1780, "ayush": 1781, "conf": 1782, "lodg": 1783, "complet": 1784, "upto": 1785, "mmes": 1786, "pos": 1787, "poss": 1788, "popul": 1789, "portability": 1790, "introdu": 1791, "implemented": 1792, "option": 1793, "while": 1794, "procedure": 1795, "offices": 1796, "payments": 1797, "specialties": 1798, "follows": 1799, "issue": 1800, "miss": 1801, "subject": 1802, "kitchens": 1803, "phone": 1804, "duration": 1805, "recip": 1806, "visits": 1807, "surge": 1808, "approach": 1809, "directorate": 1810, "established": 1811, "equipped": 1812, "benefit": 1813, "legisl": 1814, "selection": 1815, "surgical": 1816, "surgery": 1817, "uploaded": 1818, "labor": 1819, "assurance": 1820, "therapy": 1821, "shgs": 1822, "appropriate": 1823, "clinical": 1824, "daily": 1825, "ecosystem": 1826, "multi": 1827, "ayushman": 1828, "03": 1829, "1st": 1830, "2nd": 1831, "33": 1832, "48": 1833, "bor": 1834, "bod": 1835, "clo": 1836, "ded": 1837, "hard": 1838, "hyg": 1839, "next": 1840, "oc": 1841, "rd": 1842, "ron": 1843, "rate": 1844, "sg": 1845, "sim": 1846, "uc": 1847, "udies": 1848, "vision": 1849, "ycle": 1850, "thod": 1851, "enh": 1852, "ans": 1853, "rela": 1854, "atta": 1855, "studies": 1856, "ently": 1857, "icated": 1858, "ilar": 1859, "ilator": 1860, "aro": 1861, "ars": 1862, "com": 1863, "could": 1864, "ctv": 1865, "method": 1866, "proof": 1867, "prote": 1868, "shop": 1869, "shik": 1870, "cept": 1871, "deal": 1872, "diu": 1873, "vey": 1874, "permitted": 1875, "urban": 1876, "loc": 1877, "now": 1878, "tele": 1879, "ters": 1880, "quant": 1881, "extend": 1882, "plinary": 1883, "good": 1884, "prev": 1885, "prefer": 1886, "intim": 1887, "focus": 1888, "step": 1889, "notice": 1890, "ize": 1891, "key": 1892, "identify": 1893, "procurement": 1894, "trusts": 1895, "followed": 1896, "boarding": 1897, "2018": 1898, "premises": 1899, "object": 1900, "complain": 1901, "disci": 1902, "authent": 1903, "programmes": 1904, "internal": 1905, "heads": 1906, "match": 1907, "fix": 1908, "ables": 1909, "pattern": 1910, "oversee": 1911, "couns": 1912, "listed": 1913, "proposals": 1914, "content": 1915, "placement": 1916, "conven": 1917, "smc": 1918, "black": 1919, "single": 1920, "incentive": 1921, "involved": 1922, "down": 1923, "transfer": 1924, "principal": 1925, "satisf": 1926, "tasks": 1927, "response": 1928, "captured": 1929, "practices": 1930, "yojana": 1931, "residential": 1932, "material": 1933, "confidence": 1934, "completion": 1935, "surgeon": 1936, "body": 1937, "hygi": 1938, "similar": 1939, "relax": 1940, "disciplinary": 1941, "08": 1942, "37": 1943, "55": 1944, "bill": 1945, "dr": 1946, "dri": 1947, "ele": 1948, "fill": 1949, "fail": 1950, "ias": 1951, "ki": 1952, "smo": 1953, "sign": 1954, "way": 1955, "ension": 1956, "reen": 1957, "redi": 1958, "aligned": 1959, "iture": 1960, "ional": 1961, "ingredi": 1962, "arh": 1963, "arted": 1964, "toa": 1965, "meas": 1966, "super": 1967, "she": 1968, "abhi": 1969, "ute": 1970, "uted": 1971, "strateg": 1972, "area": 1973, "appoint": 1974, "conn": 1975, "note": 1976, "exp": 1977, "exper": 1978, "expend": 1979, "examin": 1980, "here": 1981, "updated": 1982, "parame": 1983, "mach": 1984, "steps": 1985, "opted": 1986, "levels": 1987, "find": 1988, "doctor": 1989, "workshop": 1990, "shared": 1991, "numbers": 1992, "2015": 1993, "wheat": 1994, "discus": 1995, "submit": 1996, "thereafter": 1997, "accident": 1998, "supporting": 1999, "authorities": 2000, "mandated": 2001, "tribal": 2002, "engagement": 2003, "backward": 2004, "background": 2005, "ysis": 2006, "invite": 2007, "modal": 2008, "inspect": 2009, "creation": 2010, "create": 2011, "........................................................................................................": 2012, "coverage": 2013, "deemed": 2014, "utilisation": 2015, "standards": 2016, "aspir": 2017, "contractual": 2018, "completed": 2019, "preparation": 2020, "offering": 2021, "resources": 2022, "radio": 2023, "consider": 2024, "dsd": 2025, "times": 2026, "entitlement": 2027, "corporation": 2028, "results": 2029, "progress": 2030, "recipes": 2031, "borne": 2032, "hardware": 2033, "around": 2034, "shiksha": 2035, "previous": 2036, "complainant": 2037, "ingredients": 2038, "abhiyan": 2039, "expenditure": 2040, "01": 2041, "07": 2042, "54": 2043, "58": 2044, "89": 2045, "ai": 2046, "actions": 2047, "ee": 2048, "ees": 2049, "eas": 2050, "fair": 2051, "ging": 2052, "iec": 2053, "lp": 2054, "late": 2055, "labo": 2056, "mer": 2057, "mated": 2058, "oth": 2059, "sms": 2060, "vid": 2061, "viii": 2062, "thir": 2063, "enable": 2064, "anies": 2065, "remo": 2066, "alized": 2067, "off": 2068, "stor": 2069, "enter": 2070, "roti": 2071, "metr": 2072, "raj": 2073, "succ": 2074, "sufficient": 2075, "alloc": 2076, "dep": 2077, "abh": 2078, "abled": 2079, "permiss": 2080, "how": 2081, "adopted": 2082, "uru": 2083, "schedu": 2084, "cons": 2085, "contri": 2086, "convey": 2087, "ula": 2088, "ulum": 2089, "exc": 2090, "tax": 2091, "compon": 2092, "companies": 2093, "iring": 2094, "undertake": 2095, "sour": 2096, "impact": 2097, "assigned": 2098, "portun": 2099, "making": 2100, "outside": 2101, "opportun": 2102, "regard": 2103, "assessments": 2104, "getting": 2105, "timeline": 2106, "aush": 2107, "payable": 2108, "worker": 2109, "2017": 2110, "indian": 2111, "accord": 2112, "cards": 2113, "included": 2114, "aster": 2115, "margin": 2116, "elling": 2117, "periodic": 2118, "sectors": 2119, "enrolled": 2120, "created": 2121, "riculum": 2122, "utilization": 2123, "awarded": 2124, "supplied": 2125, "functioning": 2126, "representatives": 2127, "linked": 2128, "recommended": 2129, "gaps": 2130, "conducting": 2131, "councils": 2132, "printed": 2133, "ventilator": 2134, "produce": 2135, "complete": 2136, "classes": 2137, "curriculum": 2138, "vegetable": 2139, "vegetables": 2140, "automated": 2141, "suspension": 2142, "technology": 2143, "geographies": 2144, "rejected": 2145, "ngos": 2146, "agreement": 2147, "limited": 2148, "choose": 2149, "household": 2150, "expenses": 2151, "planning": 2152, "specialists": 2153, "population": 2154, "legislation": 2155, "dedicated": 2156, "protection": 2157, "fixed": 2158, "elect": 2159, "parameters": 2160, "accidental": 2161, "labour": 2162, "success": 2163, "permissible": 2164, "schedule": 2165, "marginalized": 2166, "%.": 2167, "02": 2168, "04": 2169, "34": 2170, "85": 2171, ":-": 2172, "ade": 2173, "bir": 2174, "clear": 2175, "ep": 2176, "email": 2177, "gas": 2178, "ire": 2179, "ka": 2180, "kar": 2181, "kaush": 2182, "ling": 2183, "mu": 2184, "mic": 2185, "pw": 2186, "pass": 2187, "pias": 2188, "sar": 2189, "scan": 2190, "tp": 2191, "tation": 2192, "table": 2193, "tcs": 2194, "ue": 2195, "ule": 2196, "wal": 2197, "input": 2198, "theat": 2199, "remain": 2200, "ately": 2201, "alay": 2202, "entry": 2203, "entire": 2204, "iling": 2205, "ason": 2206, "ising": 2207, "chall": 2208, "forward": 2209, "ram": 2210, "raise": 2211, "ably": 2212, "diag": 2213, "spa": 2214, "vered": 2215, "strict": 2216, "vers": 2217, "vert": 2218, "adjust": 2219, "urity": 2220, "conside": 2221, "uly": 2222, "temp": 2223, "ams": 2224, "compet": 2225, "compos": 2226, "play": 2227, "undertaken": 2228, "undertaking": 2229, "emphas": 2230, "try": 2231, "usted": 2232, "claimed": 2233, "party": 2234, "parties": 2235, "security": 2236, "does": 2237, "healthcare": 2238, "respect": 2239, "orders": 2240, "ants": 2241, "gram": 2242, "directions": 2243, "achi": 2244, "processes": 2245, "........................................................................................": 2246, "screen": 2247, "needed": 2248, "desk": 2249, "accounts": 2250, "departments": 2251, "authorisation": 2252, "chana": 2253, "presented": 2254, "items": 2255, "tained": 2256, "documentary": 2257, "module": 2258, "organized": 2259, "employability": 2260, "tions": 2261, "life": 2262, "........................................................................................................................": 2263, "ccn": 2264, "contin": 2265, "pulses": 2266, "resolved": 2267, "marks": 2268, "selected": 2269, "separately": 2270, "indicative": 2271, "classroom": 2272, "curr": 2273, "lakhs": 2274, "profile": 2275, "addressing": 2276, "analysis": 2277, "advance": 2278, "transpar": 2279, "carrying": 2280, "purchase": 2281, "names": 2282, "you": 2283, "lodging": 2284, "introduction": 2285, "multiple": 2286, "quantity": 2287, "extended": 2288, "counselling": 2289, "smooth": 2290, "measures": 2291, "discussed": 2292, "aspirational": 2293, "lpg": 2294, "storage": 2295, "component": 2296, "birth": 2297, "kaushal": 2298, "theatre": 2299, "diagno": 2300, "considered": 2301, "emphasis": 2302, ")/": 2303, "32": 2304, "44": 2305, "46": 2306, "47": 2307, "450": 2308, "56": 2309, "59": 2310, "66": 2311, "80": 2312, "bre": 2313, "bur": 2314, "border": 2315, "ced": 2316, "cul": 2317, "cycle": 2318, "cctv": 2319, "ding": 2320, "ft": 2321, "fit": 2322, "far": 2323, "fig": 2324, "flow": 2325, "gist": 2326, "hip": 2327, "hiring": 2328, "ients": 2329, "iya": 2330, "ker": 2331, "kuru": 2332, "kula": 2333, "lwe": 2334, "mag": 2335, "nq": 2336, "nag": 2337, "ners": 2338, "nabh": 2339, "pu": 2340, "pun": 2341, "ras": 2342, "swe": 2343, "tc": 2344, "till": 2345, "ually": 2346, "virt": 2347, "welf": 2348, "yon": 2349, "inno": 2350, "those": 2351, "enar": 2352, "enabled": 2353, "rev": 2354, "ala": 2355, "ors": 2356, "ory": 2357, "orient": 2358, "stic": 2359, "start": 2360, "ilities": 2361, "ardi": 2362, "tool": 2363, "lead": 2364, "covered": 2365, "chem": 2366, "beyon": 2367, "proport": 2368, "untoward": 2369, "devi": 2370, "depend": 2371, "deput": 2372, "uttar": 2373, "sequ": 2374, "season": 2375, "ayat": 2376, "adh": 2377, "advert": 2378, "etra": 2379, "righ": 2380, "terms": 2381, "aman": 2382, "exemp": 2383, "iry": 2384, "update": 2385, "nhm": 2386, "insured": 2387, "poor": 2388, "pool": 2389, "sough": 2390, "para": 2391, "parents": 2392, "ended": 2393, "user": 2394, "weight": 2395, "itions": 2396, "formed": 2397, "samples": 2398, "ifications": 2399, "medic": 2400, "workers": 2401, "istrate": 2402, "lines": 2403, "specialty": 2404, "receive": 2405, "achal": 2406, "anced": 2407, "presence": 2408, "dispo": 2409, "operations": 2410, "persons": 2411, "subsequ": 2412, "scenar": 2413, "months": 2414, "internet": 2415, "north": 2416, "tendering": 2417, "patients": 2418, "vised": 2419, "relating": 2420, "dgc": 2421, "namely": 2422, "transactions": 2423, "standardi": 2424, "ensive": 2425, "official": 2426, "officials": 2427, "administration": 2428, "points": 2429, "recognized": 2430, "managing": 2431, "effectiv": 2432, "hire": 2433, "utilized": 2434, "faq": 2435, "audits": 2436, "teachers": 2437, "initiated": 2438, "performance": 2439, "affiliation": 2440, "accessible": 2441, "clean": 2442, "univers": 2443, "suggested": 2444, "suggestions": 2445, "panchkula": 2446, "panchayat": 2447, "caste": 2448, "coordinator": 2449, "transport": 2450, "bajre": 2451, "bajra": 2452, "channa": 2453, "channel": 2454, "nominated": 2455, "power": 2456, "kshetra": 2457, "turnaround": 2458, "possible": 2459, "authentication": 2460, "overseeing": 2461, "satisfied": 2462, "hygiene": 2463, "relaxation": 2464, "experts": 2465, "machine": 2466, "findings": 2467, "modalities": 2468, "dsdps": 2469, "third": 2470, "allocated": 2471, "conveyance": 2472, "taxes": 2473, "accordance": 2474, "sarv": 2475, "challeng": 2476, "space": 2477, "composition": 2478, "youth": 2479, "kurukshetra": 2480, "magistrate": 2481, "nqas": 2482, "welfare": 2483, "innov": 2484, "beyond": 2485, "proportion": 2486, "deputy": 2487, "right": 2488, "sought": 2489, "scenario": 2490, "standardiz": 2491, "universities": 2492, "#)": 2493, "(#)": 2494, "):": 2495, ".).": 2496, "06": 2497, "225": 2498, "35": 2499, "42": 2500, "51": 2501, "72": 2502, "88": 2503, "ao": 2504, "bri": 2505, "bution": 2506, "bhar": 2507, "censu": 2508, "dra": 2509, "duly": 2510, "eos": 2511, "etha": 2512, "easter": 2513, "fr": 2514, "fus": 2515, "ger": 2516, "ghe": 2517, "gir": 2518, "gend": 2519, "hum": 2520, "ipl": 2521, "jail": 2522, "ks": 2523, "long": 2524, "mber": 2525, "mapp": 2526, "mix": 2527, "occ": 2528, "qp": 2529, "rusted": 2530, "sco": 2531, "simp": 2532, "sav": 2533, "uro": 2534, "ves": 2535, "win": 2536, "yc": 2537, "ying": 2538, "incharges": 2539, "antha": 2540, "reli": 2541, "remarks": 2542, "err": 2543, "alent": 2544, "......": 2545, "entrusted": 2546, "escal": 2547, "asthan": 2548, "associ": 2549, "ission": 2550, "code": 2551, "chand": 2552, "beeos": 2553, "prob": 2554, "ceiling": 2555, "une": 2556, "units": 2557, "mple": 2558, "dification": 2559, "diments": 2560, "aging": 2561, "aggriev": 2562, "hot": 2563, "adap": 2564, "admin": 2565, "adher": 2566, "trainees": 2567, "accep": 2568, "accept": 2569, "condiments": 2570, "look": 2571, "logy": 2572, "proving": 2573, "quiry": 2574, "trainings": 2575, "extern": 2576, "taste": 2577, "plac": 2578, "improving": 2579, "ivalent": 2580, "........................................................": 2581, "upper": 2582, "commence": 2583, "imparted": 2584, "mother": 2585, "mous": 2586, "modification": 2587, "even": 2588, "west": 2589, "ences": 2590, "specifications": 2591, "mind": 2592, "manpower": 2593, "format": 2594, "avo": 2595, "kept": 2596, "partners": 2597, "timely": 2598, "domain": 2599, "aug": 2600, "salt": 2601, "medi": 2602, "itself": 2603, "atorily": 2604, "ichdi": 2605, "specialized": 2606, "earned": 2607, "guidance": 2608, "prantha": 2609, "direction": 2610, "bound": 2611, "inclus": 2612, "individ": 2613, "additionally": 2614, "misuse": 2615, "display": 2616, "funding": 2617, "informed": 2618, "affected": 2619, "career": 2620, "international": 2621, "intervent": 2622, "mandatorily": 2623, "wash": 2624, "changes": 2625, "industries": 2626, "blocks": 2627, "blocked": 2628, "posts": 2629, "country": 2630, "cardi": 2631, "designing": 2632, "equivalent": 2633, "handbook": 2634, "establishments": 2635, "integr": 2636, "allowance": 2637, "requested": 2638, "bring": 2639, "ccgms": 2640, "pulao": 2641, "chairman": 2642, "particul": 2643, "nutritional": 2644, "functional": 2645, "khichdi": 2646, "news": 2647, "linking": 2648, "participation": 2649, "participating": 2650, "convocation": 2651, "technic": 2652, "indicated": 2653, "small": 2654, "initiate": 2655, "principl": 2656, "emerging": 2657, "uniform": 2658, "automat": 2659, "ulture": 2660, "resource": 2661, "improvement": 2662, "ectivity": 2663, "maintained": 2664, "technical": 2665, "geographical": 2666, "showcause": 2667, "amongst": 2668, "daal": 2669, "arrangement": 2670, "economic": 2671, "photograph": 2672, "flag": 2673, "writ": 2674, "wrong": 2675, "powers": 2676, "determined": 2677, "biometr": 2678, "position": 2679, "close": 2680, "enhance": 2681, "comments": 2682, "methodology": 2683, "dealt": 2684, "locally": 2685, "preferably": 2686, "objectives": 2687, "bills": 2688, "fails": 2689, "strategy": 2690, "connectivity": 2691, "expected": 2692, "examination": 2693, "offence": 2694, "rajasthan": 2695, "deploy": 2696, "consisting": 2697, "contribution": 2698, "excess": 2699, "households": 2700, "electron": 2701, "micro": 2702, "pwd": 2703, "inputs": 2704, "screening": 2705, "currently": 2706, "sweet": 2707, "virtual": 2708, "chemical": 2709, "seasonal": 2710, "advertise": 2711, "medicines": 2712, "challenges": 2713, "innovative": 2714, "census": 2715, "eastern": 2716, "ghee": 2717, "girl": 2718, "human": 2719, "aggrieved": 2720, "adherence": 2721, "commencement": 2722, "principles": 2723, "05": 2724, "120": 2725, "41": 2726, "43": 2727, "49": 2728, "52": 2729, "71": 2730, "74": 2731, "75": 2732, "aut": 2733, "aim": 2734, "bim": 2735, "bust": 2736, "beng": 2737, "cell": 2738, "eve": 2739, "eating": 2740, "fm": 2741, "fu": 2742, "fre": 2743, "gar": 2744, "gfr": 2745, "hal": 2746, "hence": 2747, "ior": 2748, "jor": 2749, "jar": 2750, "jab": 2751, "jam": 2752, "kg": 2753, "kend": 2754, "kash": 2755, "ligh": 2756, "mc": 2757, "mil": 2758, "mun": 2759, "mir": 2760, "madh": 2761, "na": 2762, "nat": 2763, "ox": 2764, "ough": 2765, "oice": 2766, "omous": 2767, "rut": 2768, "rup": 2769, "sr": 2770, "sab": 2771, "sol": 2772, "ssa": 2773, "six": 2774, "size": 2775, "ten": 2776, "tps": 2777, "ven": 2778, "vill": 2779, "vul": 2780, "vend": 2781, "vied": 2782, "vice": 2783, "wall": 2784, "watch": 2785, "water": 2786, "ins": 2787, "incharge": 2788, "inking": 2789, "ang": 2790, "onomous": 2791, "reput": 2792, "replacement": 2793, "atal": 2794, "atures": 2795, "ale": 2796, "altern": 2797, "sting": 2798, "eding": 2799, "ential": 2800, "entices": 2801, "ites": 2802, "ils": 2803, "arm": 2804, "robust": 2805, "ascertain": 2806, "lebr": 2807, "levied": 2808, "cooper": 2809, "ched": 2810, "ches": 2811, "chai": 2812, "best": 2813, "force": 2814, "forms": 2815, "means": 2816, "sum": 2817, "celebr": 2818, "unnecessary": 2819, "mpa": 2820, "defici": 2821, "dept": 2822, "ficult": 2823, "spent": 2824, "utens": 2825, "semin": 2826, "seek": 2827, "seeding": 2828, "streng": 2829, "agre": 2830, "appr": 2831, "construct": 2832, "consul": 2833, "login": 2834, "rix": 2835, "ressed": 2836, "laid": 2837, "excep": 2838, "ively": 2839, "tie": 2840, "tik": 2841, "tification": 2842, "centers": 2843, "irregular": 2844, "ecting": 2845, "skilled": 2846, "goi": 2847, "potent": 2848, "undergo": 2849, "commission": 2850, "most": 2851, "moong": 2852, "modif": 2853, "intensive": 2854, "four": 2855, "ibilities": 2856, "202": 2857, "major": 2858, "weigh": 2859, "outcome": 2860, "ipur": 2861, "encies": 2862, "clause": 2863, "governing": 2864, "formal": 2865, "liable": 2866, "regional": 2867, "others": 2868, "serve": 2869, "neuro": 2870, "atories": 2871, "educationally": 2872, "paper": 2873, "issuance": 2874, "active": 2875, "actual": 2876, "faced": 2877, "developed": 2878, "therefore": 2879, "features": 2880, "scrut": 2881, "scale": 2882, "affair": 2883, "supported": 2884, "reporting": 2885, "includes": 2886, "authorized": 2887, "headquarter": 2888, "matrix": 2889, "twice": 2890, "mitra": 2891, "lets": 2892, "giving": 2893, "checks": 2894, "checked": 2895, "highligh": 2896, "invited": 2897, "invoice": 2898, "difficult": 2899, "communities": 2900, "categories": 2901, "sectoral": 2902, "organization": 2903, "crore": 2904, "handed": 2905, "employer": 2906, "tional": 2907, "operators": 2908, "mechanisms": 2909, "daliya": 2910, "stored": 2911, "webs": 2912, "................................................................................................................": 2913, "validity": 2914, "investigations": 2915, "clust": 2916, "settled": 2917, "regularly": 2918, "hired": 2919, "face": 2920, "father": 2921, "functionaries": 2922, "nerable": 2923, "correct": 2924, "socio": 2925, "interested": 2926, "select": 2927, "quarterly": 2928, "crimin": 2929, "foundation": 2930, "initiatives": 2931, "performed": 2932, "ordination": 2933, "printing": 2934, "safe": 2935, "reference": 2936, "locations": 2937, "collection": 2938, "collected": 2939, "preparing": 2940, "profess": 2941, "incentiv": 2942, "island": 2943, "male": 2944, "assistant": 2945, "campa": 2946, "denied": 2947, "himalay": 2948, "analy": 2949, "coordinate": 2950, "advanced": 2951, "refunded": 2952, "incidents": 2953, "arrangements": 2954, "economy": 2955, "paediatrician": 2956, "promote": 2957, "cashless": 2958, "constitution": 2959, "constituted": 2960, "cchs": 2961, "laboratories": 2962, "sgc": 2963, "sgno": 2964, "dealing": 2965, "nowled": 2966, "telephone": 2967, "intimation": 2968, "identifying": 2969, "objective": 2970, "convenor": 2971, "blacklisted": 2972, "drive": 2973, "ways": 2974, "appointed": 2975, "latest": 2976, "sources": 2977, "opportunity": 2978, "successfully": 2979, "remaining": 2980, "..........................................................................................................................": 2981, "continu": 2982, "transparent": 2983, "burden": 2984, "punjab": 2985, "orientation": 2986, "leading": 2987, "proportionate": 2988, "standardization": 2989, "bharat": 2990, "gender": 2991, "window": 2992, "relief": 2993, "proble": 2994, "external": 2995, "placed": 2996, "avoid": 2997, "individual": 2998, "washing": 2999, "chairmanship": 3000, "automatically": 3001, "biometric": 3002, "autonomous": 3003, "bima": 3004, "bengal": 3005, "fresh": 3006, "jammu": 3007, "kashmir": 3008, "vulnerable": 3009, "enticeship": 3010, "chaired": 3011, "utensils": 3012, "apprenticeship": 3013, "potential": 3014, "scrutin": 3015, "affairs": 3016, "himalayan": 3017, "%)": 3018, "3500": 3019, "3rd": 3020, "57": 3021, "64": 3022, "700": 3023, "83": 3024, "95": 3025, "bi": 3026, "bs": 3027, "bar": 3028, "bis": 3029, "bsk": 3030, "bus": 3031, "bind": 3032, "dp": 3033, "dy": 3034, "din": 3035, "dle": 3036, "dno": 3037, "dsc": 3038, "ey": 3039, "fp": 3040, "fall": 3041, "fib": 3042, "frequ": 3043, "ffer": 3044, "fast": 3045, "ga": 3046, "gur": 3047, "glo": 3048, "greg": 3049, "hat": 3050, "had": 3051, "iance": 3052, "je": 3053, "khe": 3054, "ksha": 3055, "kyc": 3056, "ll": 3057, "lan": 3058, "lay": 3059, "lad": 3060, "mb": 3061, "mme": 3062, "ni": 3063, "nst": 3064, "nad": 3065, "nurs": 3066, "oo": 3067, "ous": 3068, "oting": 3069, "pal": 3070, "pic": 3071, "psu": 3072, "pte": 3073, "phas": 3074, "panc": 3075, "punit": 3076, "rill": 3077, "run": 3078, "rbsk": 3079, "rfp": 3080, "sen": 3081, "sely": 3082, "tn": 3083, "tro": 3084, "tate": 3085, "tamil": 3086, "vo": 3087, "vocation": 3088, "ww": 3089, "wing": 3090, "x7": 3091, "xi": 3092, "iness": 3093, "inpatient": 3094, "inik": 3095, "infl": 3096, "thal": 3097, "thical": 3098, "enic": 3099, "enabl": 3100, "envis": 3101, "enquiry": 3102, "another": 3103, "theti": 3104, "ones": 3105, "onco": 3106, "onboard": 3107, "onatal": 3108, "reh": 3109, "rease": 3110, "remed": 3111, "reach": 3112, "recr": 3113, "retained": 3114, "attent": 3115, "aler": 3116, ".......": 3117, "orpor": 3118, "stan": 3119, "stre": 3120, "stage": 3121, "started": 3122, "edul": 3123, "ention": 3124, "ita": 3125, "itis": 3126, "itive": 3127, "esar": 3128, "esho": 3129, "estheti": 3130, "iche": 3131, "ilet": 3132, "andaman": 3133, "asing": 3134, "ases": 3135, "toilet": 3136, "forts": 3137, "fortification": 3138, "summ": 3139, "unch": 3140, "mph": 3141, "alliance": 3142, "depo": 3143, "defa": 3144, "defib": 3145, "abuse": 3146, "....................": 3147, "spe": 3148, "uter": 3149, "sever": 3150, "septe": 3151, "strong": 3152, "version": 3153, "verify": 3154, "ithal": 3155, "arest": 3156, "adwe": 3157, "advised": 3158, "api": 3159, "apr": 3160, "apart": 3161, "uring": 3162, "urred": 3163, "schedul": 3164, "conne": 3165, "confir": 3166, "logo": 3167, "losed": 3168, "noss": 3169, "essential": 3170, "ulation": 3171, "temples": 3172, "umar": 3173, "reser": 3174, "que": 3175, "quate": 3176, "laksh": 3177, "pmu": 3178, "ecycle": 3179, "exa": 3180, "expres": 3181, "except": 3182, "tasting": 3183, "computer": 3184, "plates": 3185, "pline": 3186, "redu": 3187, "enever": 3188, "ivity": 3189, "........................................": 3190, "tive": 3191, "upational": 3192, "igence": 3193, "igns": 3194, "igarh": 3195, "provides": 3196, "going": 3197, "understand": 3198, "import": 3199, "impart": 3200, "mou": 3201, "evidence": 3202, "udwar": 3203, "enced": 3204, "enclosed": 3205, "notified": 3206, "notify": 3207, "empaneled": 3208, "minor": 3209, "minated": 3210, "opa": 3211, "manage": 3212, "instance": 3213, "lification": 3214, "keep": 3215, "until": 3216, "serious": 3217, "what": 3218, "whiche": 3219, "whenever": 3220, "increase": 3221, "incorpor": 3222, "partner": 3223, "availing": 3224, "neonatal": 3225, "nearest": 3226, "procured": 3227, "dominated": 3228, "worth": 3229, "said": 3230, "foodgrains": 3231, "cannot": 3232, "addressed": 3233, "middle": 3234, "ensured": 3235, "supp": 3236, "helpline": 3237, "istence": 3238, "2010": 3239, "2014": 3240, "guideline": 3241, "obar": 3242, "observ": 3243, "objection": 3244, "tranches": 3245, "processing": 3246, "path": 3247, "papers": 3248, "pamph": 3249, "pmkks": 3250, "issuing": 3251, "discre": 3252, "operability": 3253, "thereupon": 3254, "execution": 3255, "mdms": 3256, "affecting": 3257, "interrup": 3258, "interoperability": 3259, "efforts": 3260, "pean": 3261, "changed": 3262, "responsibilities": 3263, "holding": 3264, "critical": 3265, "propose": 3266, "fire": 3267, "industrial": 3268, "vise": 3269, "captive": 3270, "approvals": 3271, "generated": 3272, "trip": 3273, "wherein": 3274, "wherever": 3275, "anaestheti": 3276, "listing": 3277, "oscopy": 3278, "135": 3279, "activity": 3280, "regulations": 3281, "regulatory": 3282, "penalties": 3283, "ehcps": 3284, "puri": 3285, "calcul": 3286, "decides": 3287, "fields": 3288, "lifecycle": 3289, "ublesho": 3290, "requests": 3291, "..................................................................................................": 3292, "personal": 3293, "validated": 3294, "appeals": 3295, "24x7": 3296, "regularity": 3297, "colleg": 3298, "control": 3299, "factor": 3300, "rank": 3301, "helpdesk": 3302, "physically": 3303, "functionary": 3304, "legal": 3305, "demanding": 3306, "recommendations": 3307, "evaluated": 3308, "akhand": 3309, "csr": 3310, "territory": 3311, "nicobar": 3312, "distributed": 3313, "feeding": 3314, "smt": 3315, "appear": 3316, "requisites": 3317, "flexi": 3318, "secondary": 3319, "opened": 3320, "videos": 3321, "referred": 3322, "produced": 3323, "2900": 3324, "unique": 3325, "profit": 3326, "blended": 3327, "involve": 3328, "qualifications": 3329, "himachal": 3330, "ygen": 3331, "dainik": 3332, "wait": 3333, "agreements": 3334, "considering": 3335, "nominee": 3336, "promotion": 3337, "expense": 3338, "planned": 3339, "determine": 3340, "larger": 3341, "lodged": 3342, "laboratory": 3343, "closely": 3344, "ucn": 3345, "ctvs": 3346, "preference": 3347, "intimated": 3348, "satisfaction": 3349, "hygienic": 3350, "similarly": 3351, "drinking": 3352, "sheet": 3353, "examined": 3354, "invitee": 3355, "radiotherapy": 3356, "easily": 3357, "merit": 3358, "remote": 3359, "opportunities": 3360, "successful": 3361, "adequate": 3362, "kaithal": 3363, "adjusting": 3364, "template": 3365, "achiev": 3366, "achieve": 3367, "diagnostic": 3368, "figure": 3369, "nagar": 3370, "uttarakhand": 3371, "disposal": 3372, "subsequent": 3373, "effectiveness": 3374, "channels": 3375, "youths": 3376, "brief": 3377, "draw": 3378, "jails": 3379, "mapping": 3380, "occupational": 3381, "scope": 3382, "simplification": 3383, "saving": 3384, "error": 3385, "escalation": 3386, "chandigarh": 3387, "unethical": 3388, "adapting": 3389, "accepted": 3390, "august": 3391, "particular": 3392, "written": 3393, "wrongful": 3394, "chemicals": 3395, "fuel": 3396, "kendras": 3397, "oxygen": 3398, "village": 3399, "deficiencies": 3400, "strength": 3401, "agrees": 3402, "consultation": 3403, "exceptional": 3404, "commissioner": 3405, "modified": 3406, "weighing": 3407, "neurosurgery": 3408, "website": 3409, "cluster": 3410, "professional": 3411, "islands": 3412, "continuous": 3413, "problem": 3414, "biscu": 3415, "business": 3416, "binding": 3417, "dynam": 3418, "frequency": 3419, "gurudwar": 3420, "kheer": 3421, "langu": 3422, "nadu": 3423, "nursing": 3424, "punitive": 3425, "rillator": 3426, "troublesho": 3427, "vocational": 3428, "enabling": 3429, "envisaged": 3430, "recru": 3431, "attention": 3432, "summary": 3433, "defibrillator": 3434, "adweep": 3435, "scheduled": 3436, "lakshadweep": 3437, "keeping": 3438, "whichever": 3439, "discrepanc": 3440, "anaesthetist": 3441, "colleges": 3442, "gurudwara": 3443, "troubleshooting": 3444, "**": 3445, "360": 3446, "53": 3447, "5g": 3448, "540": 3449, "61": 3450, "62": 3451, "65": 3452, "68": 3453, "69": 3454, "73": 3455, "77": 3456, "97": 3457, "ah": 3458, "aay": 3459, "bt": 3460, "bho": 3461, "blo": 3462, "bund": 3463, "brough": 3464, "burse": 3465, "burn": 3466, "cm": 3467, "cir": 3468, "cmo": 3469, "cgh": 3470, "dm": 3471, "der": 3472, "dil": 3473, "dro": 3474, "dut": 3475, "dad": 3476, "dates": 3477, "dition": 3478, "dge": 3479, "daman": 3480, "ered": 3481, "ections": 3482, "fil": 3483, "fet": 3484, "fif": 3485, "fms": 3486, "fact": 3487, "file": 3488, "fron": 3489, "gul": 3490, "give": 3491, "garh": 3492, "hm": 3493, "hor": 3494, "hra": 3495, "hrs": 3496, "hend": 3497, "hdu": 3498, "hild": 3499, "hrd": 3500, "ier": 3501, "ience": 3502, "jing": 3503, "jud": 3504, "jack": 3505, "jhar": 3506, "kw": 3507, "kor": 3508, "kas": 3509, "kad": 3510, "kcon": 3511, "kim": 3512, "kti": 3513, "kio": 3514, "khand": 3515, "kind": 3516, "kmc": 3517, "las": 3518, "lap": 3519, "live": 3520, "lied": 3521, "lady": 3522, "ml": 3523, "ming": 3524, "mates": 3525, "mass": 3526, "miz": 3527, "mik": 3528, "mhrd": 3529, "ng": 3530, "nct": 3531, "nies": 3532, "nabl": 3533, "nish": 3534, "nurse": 3535, "niti": 3536, "og": 3537, "oms": 3538, "ogy": 3539, "pet": 3540, "pict": 3541, "pus": 3542, "page": 3543, "pip": 3544, "pite": 3545, "ption": 3546, "pfms": 3547, "qr": 3548, "rene": 3549, "rational": 3550, "rash": 3551, "sin": 3552, "san": 3553, "sit": 3554, "slow": 3555, "sik": 3556, "td": 3557, "tu": 3558, "tal": 3559, "tis": 3560, "tel": 3561, "tith": 3562, "tum": 3563, "tics": 3564, "ustr": 3565, "wif": 3566, "wage": 3567, "income": 3568, "independ": 3569, "infus": 3570, "inmates": 3571, "thopa": 3572, "enough": 3573, "anch": 3574, "ongoing": 3575, "resu": 3576, "reim": 3577, "remon": 3578, "refra": 3579, "research": 3580, "restrict": 3581, "refus": 3582, "eration": 3583, "erry": 3584, "aland": 3585, "alone": 3586, "aloo": 3587, "ories": 3588, "oram": 3589, "orthopa": 3590, "stance": 3591, "stations": 3592, "edics": 3593, "enty": 3594, "entity": 3595, "entered": 3596, "icra": 3597, "icate": 3598, "ician": 3599, "ilt": 3600, "arun": 3601, "arby": 3602, "arting": 3603, "andhra": 3604, "roh": 3605, "route": 3606, "rooms": 3607, "asible": 3608, "too": 3609, "tow": 3610, "tocol": 3611, "toll": 3612, "isha": 3613, "iskcon": 3614, "coding": 3615, "chak": 3616, "chhat": 3617, "cherry": 3618, "bered": 3619, "become": 3620, "ids": 3621, "idating": 3622, "ctive": 3623, "met": 3624, "meter": 3625, "megh": 3626, "meetha": 3627, "melas": 3628, "sure": 3629, "suction": 3630, "sumed": 3631, "surpl": 3632, "suffer": 3633, "elled": 3634, "promp": 3635, "protocol": 3636, "shas": 3637, "shram": 3638, "ceremon": 3639, "illustr": 3640, "unless": 3641, "unspent": 3642, "unbund": 3643, "allied": 3644, "depri": 3645, "deleg": 3646, "spo": 3647, "spect": 3648, "spia": 3649, "utes": 3650, "sem": 3651, "section": 3652, "willing": 3653, "agric": 3654, "aggreg": 3655, "agogy": 3656, "withdraw": 3657, "adhe": 3658, "adult": 3659, "acles": 3660, "ets": 3661, "conform": 3662, "consec": 3663, "contain": 3664, "log": 3665, "logist": 3666, "lodge": 3667, "nos": 3668, "ulging": 3669, "riage": 3670, "terti": 3671, "terns": 3672, "ression": 3673, "amb": 3674, "launch": 3675, "excl": 3676, "hear": 3677, "height": 3678, "comply": 3679, "compens": 3680, "complied": 3681, "plication": 3682, "havel": 3683, "imc": 3684, "immed": 3685, "reduc": 3686, "ivrs": 3687, "....................................................": 3688, "iron": 3689, "ups": 3690, "odisha": 3691, "hospitalisation": 3692, "insufficient": 3693, "goa": 3694, "soya": 3695, "param": 3696, "trend": 3697, "prevent": 3698, "preauthorization": 3699, "assam": 3700, "mos": 3701, "motherapy": 3702, "2022": 3703, "endar": 3704, "endoscopy": 3705, "mahar": 3706, "mahend": 3707, "uses": 3708, "users": 3709, "ducherry": 3710, "duplication": 3711, "money": 3712, "outlay": 3713, "iie": 3714, "afide": 3715, "specify": 3716, "minist": 3717, "izing": 3718, "opting": 3719, "clauses": 3720, "manual": 3721, "manipur": 3722, "otherwise": 3723, "white": 3724, "increas": 3725, "incurred": 3726, "lower": 3727, "gets": 3728, "nearby": 3729, "timelines": 3730, "door": 3731, "doub": 3732, "gears": 3733, "geetha": 3734, "sample": 3735, "cancer": 3736, "respectiv": 3737, "gule": 3738, "gujar": 3739, "salient": 3740, "payout": 3741, "acknowled": 3742, "works": 3743, "workforce": 3744, "costs": 3745, "costing": 3746, "liness": 3747, "ators": 3748, "grade": 3749, "speciality": 3750, "specialities": 3751, "earmark": 3752, "prise": 3753, "requires": 3754, "educational": 3755, "applied": 3756, "2011": 3757, "2012": 3758, "quali": 3759, "qualify": 3760, "obtain": 3761, "ancing": 3762, "processed": 3763, "pace": 3764, "pakor": 3765, "sets": 3766, "........................................................................": 3767, "president": 3768, "disput": 3769, "dissemin": 3770, "treatments": 3771, "ignment": 3772, "operation": 3773, "funded": 3774, "thereon": 3775, "few": 3776, "feature": 3777, "female": 3778, "feasible": 3779, "scitation": 3780, "despite": 3781, "execute": 3782, "cruc": 3783, "programs": 3784, "vikas": 3785, "rolled": 3786, "delhi": 3787, "decisions": 3788, "authorised": 3789, "tradition": 3790, "holders": 3791, "energy": 3792, "twenty": 3793, "criterion": 3794, "mitras": 3795, "patterns": 3796, "return": 3797, "capital": 3798, "generate": 3799, "trib": 3800, "triya": 3801, "123": 3802, "engine": 3803, "posters": 3804, "charged": 3805, "march": 3806, "marriage": 3807, "studying": 3808, "hcs": 3809, "surprise": 3810, "ellence": 3811, "periodically": 3812, "recording": 3813, "documentation": 3814, "cart": 3815, "modes": 3816, "value": 3817, "priorities": 3818, "designed": 3819, "designate": 3820, "better": 3821, "calendar": 3822, "handle": 3823, "handicra": 3824, "employed": 3825, "missions": 3826, "lifted": 3827, "poly": 3828, "inspections": 3829, "enroll": 3830, "indulging": 3831, "stock": 3832, "branch": 3833, "nutri": 3834, "attendant": 3835, "validate": 3836, "policyholders": 3837, "digitalization": 3838, "whom": 3839, "whole": 3840, "whose": 3841, "grants": 3842, "settle": 3843, "institutional": 3844, "reviews": 3845, "collabor": 3846, "covers": 3847, "covering": 3848, "contamin": 3849, "fax": 3850, "range": 3851, "supplies": 3852, "resolve": 3853, "physician": 3854, "condition": 3855, "conditions": 3856, "corpus": 3857, "urad": 3858, "olog": 3859, "constructed": 3860, "linkage": 3861, "recommending": 3862, "recommendation": 3863, "ergarh": 3864, "aka": 3865, "aksh": 3866, "csir": 3867, "experienced": 3868, "weekly": 3869, "certificates": 3870, "participate": 3871, "participant": 3872, "participants": 3873, "nicu": 3874, "registry": 3875, "matters": 3876, "indicating": 3877, "indicators": 3878, "facilitating": 3879, "purposes": 3880, "flexible": 3881, "chemotherapy": 3882, "device": 3883, "built": 3884, "labs": 3885, "referral": 3886, "artis": 3887, "product": 3888, "production": 3889, "submissions": 3890, "collect": 3891, "college": 3892, "collector": 3893, "encourage": 3894, "preparatory": 3895, "iately": 3896, "pedagogy": 3897, "extent": 3898, "malafide": 3899, "suspic": 3900, "deny": 3901, "slip": 3902, "radiation": 3903, "ians": 3904, "satisfactor": 3905, "ashtra": 3906, "absence": 3907, "economically": 3908, "photos": 3909, "397": 3910, "lacs": 3911, "limit": 3912, "otp": 3913, "entitled": 3914, "promoting": 3915, "marketing": 3916, "constitute": 3917, "justice": 3918, "large": 3919, "please": 3920, "tentative": 3921, "rectification": 3922, "rectify": 3923, "missi": 3924, "enhancing": 3925, "located": 3926, "television": 3927, "matching": 3928, "counselled": 3929, "convenience": 3930, "download": 3931, "transferred": 3932, "materials": 3933, "filled": 3934, "signing": 3935, "supervis": 3936, "supervision": 3937, "strategic": 3938, "connect": 3939, "expert": 3940, "doctors": 3941, ".............................................................................................................": 3942, "dsdp": 3943, "easy": 3944, "remove": 3945, "contribut": 3946, "excellence": 3947, "source": 3948, "regards": 3949, "electric": 3950, "karhi": 3951, "karnat": 3952, "much": 3953, "scanner": 3954, "remains": 3955, "alaya": 3956, "competitions": 3957, "continue": 3958, "transparency": 3959, "kerala": 3960, "nagaland": 3961, "pump": 3962, "puducherry": 3963, "tools": 3964, "deviation": 3965, "exempted": 3966, "exemptions": 3967, "subsequently": 3968, "effectively": 3969, "cleanliness": 3970, "transportation": 3971, "associated": 3972, "modifications": 3973, "mediation": 3974, "displayed": 3975, "intervention": 3976, "interventions": 3977, "cardiology": 3978, "integration": 3979, "functionality": 3980, "technicians": 3981, "photographs": 3982, "deployed": 3983, "electronic": 3984, "advertisement": 3985, "advertisements": 3986, "halwa": 3987, "milest": 3988, "madhya": 3989, "sabut": 3990, "vendors": 3991, "angana": 3992, "reputed": 3993, "alternative": 3994, "cooperative": 3995, "seeking": 3996, "paperless": 3997, "highlighting": 3998, "corrective": 3999, "criminal": 4000, "campaigns": 4001, "bihar": 4002, "barring": 4003, "gloves": 4004, "jeev": 4005, "mbbs": 4006, "nstis": 4007, "palwal": 4008, "psus": 4009, "running": 4010, "senior": 4011, "onboarded": 4012, "speak": 4013, "severity": 4014, "september": 4015, "example": 4016, "express": 4017, "reduce": 4018, "partnership": 4019, "supplementary": 4020, "peanut": 4021, "tripura": 4022, "calculation": 4023, "achievement": 4024, "dynamic": 4025, "language": 4026, "discrepancies": 4027, "ahl": 4028, "aayog": 4029, "bhojan": 4030, "blood": 4031, "brought": 4032, "cghs": 4033, "deriv": 4034, "diligence": 4035, "dadra": 4036, "filed": 4037, "front": 4038, "gulgule": 4039, "jingles": 4040, "jharkhand": 4041, "kaddu": 4042, "kiosk": 4043, "mizoram": 4044, "niesbud": 4045, "renewal": 4046, "rashtriya": 4047, "since": 4048, "sikkim": 4049, "tisgarh": 4050, "telangana": 4051, "tithi": 4052, "independent": 4053, "infusion": 4054, "resuscitation": 4055, "refractive": 4056, "arunachal": 4057, "chakki": 4058, "chhattisgarh": 4059, "meghalaya": 4060, "surplus": 4061, "prompt": 4062, "ceremony": 4063, "illustration": 4064, "unbundling": 4065, "deprived": 4066, "spectacles": 4067, "agriculture": 4068, "consecut": 4069, "tertiary": 4070, "compensation": 4071, "haveli": 4072, "immediately": 4073, "trends": 4074, "maharashtra": 4075, "mahendergarh": 4076, "respectively": 4077, "gujarat": 4078, "earmarked": 4079, "pakora": 4080, "dissemination": 4081, "crucial": 4082, "traditional": 4083, "engineering": 4084, "collaboration": 4085, "satisfactory": 4086, "karnataka": 4087, ");": 4088, "024": 4089, "017": 4090, "115": 4091, "114": 4092, "211": 4093, "418": 4094, "5th": 4095, "596": 4096, "63": 4097, "67": 4098, "627": 4099, "76": 4100, "79": 4101, "724": 4102, "84": 4103, "800": 4104, "845": 4105, "826": 4106, "91": 4107, "93": 4108, "94": 4109, "99": 4110, "_h": 4111, "_id": 4112, "aw": 4113, "ament": 4114, "afo": 4115, "aware": 4116, "bil": 4117, "band": 4118, "bab": 4119, "bag": 4120, "big": 4121, "bhas": 4122, "bice": 4123, "burs": 4124, "brel": 4125, "bine": 4126, "bloc": 4127, "bins": 4128, "cy": 4129, "cing": 4130, "cate": 4131, "cess": 4132, "cam": 4133, "cred": 4134, "civ": 4135, "cip": 4136, "csc": 4137, "cast": 4138, "came": 4139, "cise": 4140, "cused": 4141, "culated": 4142, "cater": 4143, "cna": 4144, "d1": 4145, "d2": 4146, "d3": 4147, "d4": 4148, "d5": 4149, "d7": 4150, "dation": 4151, "ders": 4152, "dry": 4153, "dbt": 4154, "daksh": 4155, "ever": 4156, "ease": 4157, "equal": 4158, "fy": 4159, "fat": 4160, "fake": 4161, "fts": 4162, "faster": 4163, "fssa": 4164, "gg": 4165, "gi": 4166, "gre": 4167, "gho": 4168, "gral": 4169, "gone": 4170, "gmail": 4171, "green": 4172, "guru": 4173, "gade": 4174, "hill": 4175, "hist": 4176, "hindu": 4177, "hry": 4178, "hthal": 4179, "h_id": 4180, "ie": 4181, "iy": 4182, "iation": 4183, "ially": 4184, "iyoj": 4185, "ja": 4186, "jag": 4187, "jha": 4188, "jyo": 4189, "jee": 4190, "july": 4191, "jala": 4192, "jjar": 4193, "ku": 4194, "kv": 4195, "kal": 4196, "kill": 4197, "kits": 4198, "kely": 4199, "know": 4200, "kala": 4201, "knowled": 4202, "kesar": 4203, "kumar": 4204, "ler": 4205, "land": 4206, "lity": 4207, "liv": 4208, "lig": 4209, "light": 4210, "mation": 4211, "mill": 4212, "mess": 4213, "mri": 4214, "many": 4215, "mud": 4216, "mts": 4217, "nr": 4218, "nu": 4219, "nit": 4220, "nel": 4221, "ness": 4222, "nity": 4223, "nstru": 4224, "nings": 4225, "nurses": 4226, "ncs": 4227, "odi": 4228, "ored": 4229, "omm": 4230, "pin": 4231, "pill": 4232, "pies": 4233, "pec": 4234, "qps": 4235, "rence": 4236, "rant": 4237, "rating": 4238, "rtd": 4239, "sq": 4240, "sis": 4241, "sam": 4242, "sla": 4243, "sip": 4244, "swas": 4245, "signed": 4246, "sapp": 4247, "sory": 4248, "sistence": 4249, "swif": 4250, "tv": 4251, "tin": 4252, "tat": 4253, "tag": 4254, "tur": 4255, "tiv": 4256, "tational": 4257, "ube": 4258, "uary": 4259, "uence": 4260, "ujala": 4261, "vb": 4262, "vr": 4263, "vand": 4264, "vation": 4265, "vict": 4266, "via": 4267, "wth": 4268, "wid": 4269, "want": 4270, "wants": 4271, "xii": 4272, "yet": 4273, "zgar": 4274, "\u201d.": 4275, "\ufb01cation": 4276, "inal": 4277, "init": 4278, "inand": 4279, "inste": 4280, "inquiry": 4281, "thin": 4282, "things": 4283, "thya": 4284, "ened": 4285, "enak": 4286, "theter": 4287, "theory": 4288, "onic": 4289, "onboarding": 4290, "ontal": 4291, "reve": 4292, "read": 4293, "rection": 4294, "repl": 4295, "repa": 4296, "revalidation": 4297, "revision": 4298, "remind": 4299, "reconstruct": 4300, "refresh": 4301, "revise": 4302, "atible": 4303, "atleast": 4304, "attract": 4305, "atulated": 4306, "attained": 4307, "atively": 4308, "era": 4309, "eries": 4310, "erature": 4311, "ercise": 4312, "aled": 4313, "alment": 4314, "alle": 4315, "alia": 4316, "alleg": 4317, "alysis": 4318, "alignment": 4319, "orand": 4320, "orig": 4321, "orated": 4322, "stay": 4323, "stated": 4324, "stating": 4325, "stances": 4326, "stics": 4327, "starting": 4328, "edic": 4329, "entities": 4330, "itable": 4331, "itative": 4332, "itored": 4333, "ingly": 4334, "esday": 4335, "ick": 4336, "icing": 4337, "icip": 4338, "ications": 4339, "iculture": 4340, "ilation": 4341, "illegal": 4342, "aris": 4343, "arise": 4344, "arjee": 4345, "andi": 4346, "anded": 4347, "row": 4348, "roster": 4349, "rology": 4350, "rotational": 4351, "rozgar": 4352, "asha": 4353, "top": 4354, "toge": 4355, "topic": 4356, "mented": 4357, "mentary": 4358, "isck": 4359, "lever": 4360, "lely": 4361, "leaf": 4362, "left": 4363, "cool": 4364, "comes": 4365, "covid": 4366, "cha": 4367, "chat": 4368, "chances": 4369, "beti": 4370, "beli": 4371, "beos": 4372, "begin": 4373, "because": 4374, "belong": 4375, "behal": 4376, "idab": 4377, "idge": 4378, "idences": 4379, "mea": 4380, "meenak": 4381, "raw": 4382, "rare": 4383, "rather": 4384, "raises": 4385, "raksha": 4386, "suo": 4387, "suitable": 4388, "suraksha": 4389, "elit": 4390, "elab": 4391, "promin": 4392, "proctor": 4393, "shed": 4394, "shown": 4395, "shtik": 4396, "illor": 4397, "ung": 4398, "unified": 4399, "unpaid": 4400, "unwar": 4401, "unload": 4402, "uneven": 4403, "unhygienic": 4404, "unemployed": 4405, "mpr": 4406, "mptions": 4407, "allot": 4408, "dest": 4409, "dete": 4410, "dered": 4411, "deos": 4412, "depos": 4413, "abund": 4414, "abnhpm": 4415, "abilities": 4416, "dience": 4417, "division": 4418, "diversion": 4419, "distance": 4420, "dialysis": 4421, "ficary": 4422, "spot": 4423, "spread": 4424, "seen": 4425, "seven": 4426, "sealed": 4427, "vember": 4428, "perman": 4429, "raints": 4430, "agious": 4431, "hool": 4432, "hoard": 4433, "housing": 4434, "howa": 4435, "ared": 4436, "admit": 4437, "admitted": 4438, "adjud": 4439, "aps": 4440, "appar": 4441, "acy": 4442, "acid": 4443, "acade": 4444, "urg": 4445, "urrence": 4446, "congr": 4447, "confed": 4448, "concurrently": 4449, "consumed": 4450, "undue": 4451, "nover": 4452, "november": 4453, "ulent": 4454, "ulate": 4455, "ulters": 4456, "ulsory": 4457, "umbrel": 4458, "resaid": 4459, "reskill": 4460, "amar": 4461, "quest": 4462, "quick": 4463, "exha": 4464, "expo": 4465, "extre": 4466, "exact": 4467, "explan": 4468, "exceed": 4469, "existence": 4470, "exercise": 4471, "heis": 4472, "heard": 4473, "compreh": 4474, "compatible": 4475, "compulsory": 4476, "hathin": 4477, "imate": 4478, "imaging": 4479, "immedi": 4480, "tial": 4481, "tiated": 4482, "centric": 4483, "irrespective": 4484, "irda": 4485, "uptime": 4486, "upfront": 4487, "igilator": 4488, "odop": 4489, "hospitalization": 4490, "beneficary": 4491, "got": 4492, "goals": 4493, "pouts": 4494, "poush": 4495, "poshtik": 4496, "undergone": 4497, "ivered": 4498, "command": 4499, "empow": 4500, "solely": 4501, "parent": 4502, "parli": 4503, "parish": 4504, "pariyoj": 4505, "tries": 4506, "preval": 4507, "pretation": 4508, "assisting": 4509, "moe": 4510, "moto": 4511, "motiv": 4512, "intra": 4513, "intend": 4514, "intention": 4515, "event": 4516, "events": 4517, "evidences": 4518, "focused": 4519, "usage": 4520, "monitored": 4521, "lying": 4522, "outs": 4523, "outline": 4524, "outdoor": 4525, "outube": 4526, "uding": 4527, "ghiy": 4528, "noted": 4529, "minutes": 4530, "izations": 4531, "izontal": 4532, "opd": 4533, "ophthal": 4534, "requiring": 4535, "instalment": 4536, "former": 4537, "forming": 4538, "formula": 4539, "formulation": 4540, "formulate": 4541, "lie": 4542, "likely": 4543, "declar": 4544, "governments": 4545, "assessed": 4546, "assessing": 4547, "incub": 4548, "partite": 4549, "availed": 4550, "neat": 4551, "neph": 4552, "procuring": 4553, "finally": 4554, "dos": 4555, "gem": 4556, "geared": 4557, "worming": 4558, "audience": 4559, "shakti": 4560, "gue": 4561, "guard": 4562, "membered": 4563, "memorand": 4564, "medically": 4565, "cooker": 4566, "addl": 4567, "linders": 4568, "grading": 4569, "gradation": 4570, "guiding": 4571, "ensures": 4572, "price": 4573, "printer": 4574, "prises": 4575, "pricing": 4576, "ists": 4577, "folic": 4578, "primar": 4579, "reception": 4580, "boo": 4581, "box": 4582, "releasing": 4583, "releases": 4584, "2016": 4585, "approving": 4586, "detailing": 4587, "obtained": 4588, "oblig": 4589, "108": 4590, "1045": 4591, "..................................................................": 4592, "pmkk": 4593, "cumstances": 4594, "treated": 4595, "actually": 4596, "mismatch": 4597, "annually": 4598, "diseas": 4599, "discrimin": 4600, "disburse": 4601, "discharged": 4602, "disodi": 4603, "operated": 4604, "operandi": 4605, "substan": 4606, "subsistence": 4607, "targeting": 4608, "306": 4609, "30200": 4610, "phcs": 4611, "phonic": 4612, "150": 4613, "described": 4614, "accounting": 4615, "informing": 4616, "crash": 4617, "ights": 4618, "intern": 4619, "interface": 4620, "interpretation": 4621, "lockdown": 4622, "mdmhry": 4623, "delivered": 4624, "authorizations": 4625, "normal": 4626, "pehowa": 4627, "change": 4628, "changing": 4629, "growth": 4630, "recurrence": 4631, "packs": 4632, "packed": 4633, "proposing": 4634, "additionalities": 4635, "certifications": 4636, "tender": 4637, "presentation": 4638, "visible": 4639, "retriev": 4640, "retention": 4641, "again": 4642, "capable": 4643, "overcome": 4644, "overseen": 4645, "tripartite": 4646, "conductor": 4647, "structures": 4648, "126": 4649, "12th": 4650, "147": 4651, "1448": 4652, "14397": 4653, "charging": 4654, "counter": 4655, "countries": 4656, "surve": 4657, "survey": 4658, "ellate": 4659, "checking": 4660, "approver": 4661, "recorded": 4662, "pendency": 4663, "invigilator": 4664, "communications": 4665, "installed": 4666, "transacted": 4667, "categorized": 4668, "categorize": 4669, "casual": 4670, "modus": 4671, "modules": 4672, "standing": 4673, "standalone": 4674, "priority": 4675, "designation": 4676, "learnings": 4677, "organising": 4678, "calories": 4679, "calculated": 4680, "cross": 4681, "calls": 4682, "called": 4683, "calling": 4684, "handling": 4685, "handholding": 4686, "employing": 4687, "employers": 4688, "employee": 4689, "employees": 4690, "annexures": 4691, "views": 4692, "viewed": 4693, "180": 4694, "1849": 4695, "specifically": 4696, "finalising": 4697, "lifying": 4698, "enrolments": 4699, "2554": 4700, "25845": 4701, "aids": 4702, "creating": 4703, "foreign": 4704, "integral": 4705, "store": 4706, "staffing": 4707, "allowances": 4708, "plans": 4709, "...................................................................................................": 4710, "bridge": 4711, "personnel": 4712, "160": 4713, "plastic": 4714, "instituted": 4715, "240": 4716, "climate": 4717, "compliant": 4718, "complimentary": 4719, "managed": 4720, "difference": 4721, "ekyc": 4722, "reviewed": 4723, "mentioning": 4724, "deeo": 4725, "deems": 4726, "contents": 4727, "contagious": 4728, "tracked": 4729, "placements": 4730, "publication": 4731, "publicity": 4732, "banarjee": 4733, "puller": 4734, "chairs": 4735, "helping": 4736, "nutritionist": 4737, "legally": 4738, "mobility": 4739, "beds": 4740, "correspon": 4741, "correction": 4742, "representation": 4743, "demanded": 4744, "ologist": 4745, "recommendatory": 4746, "variation": 4747, "capacities": 4748, "federation": 4749, "furnish": 4750, "councillor": 4751, "tests": 4752, "tested": 4753, "experiences": 4754, "weeks": 4755, "convene": 4756, "convener": 4757, "teaching": 4758, "distribut": 4759, "indicate": 4760, "1996": 4761, "1995": 4762, "honour": 4763, "initially": 4764, "appellate": 4765, "printable": 4766, "facilitation": 4767, "organize": 4768, "opening": 4769, "applying": 4770, "video": 4771, "asked": 4772, "nsqc": 4773, "jointly": 4774, "29596": 4775, "operationalize": 4776, "bler": 4777, "arranged": 4778, "searching": 4779, "extant": 4780, "2008": 4781, "fraudulent": 4782, "malda": 4783, "malpractices": 4784, "enue": 4785, "enues": 4786, "assured": 4787, "assumptions": 4788, "suspended": 4789, "assistance": 4790, "reasonable": 4791, "maintains": 4792, "maintaining": 4793, "chairpersonship": 4794, "catheter": 4795, "himself": 4796, "analys": 4797, "coordination": 4798, "shows": 4799, "advice": 4800, "constraints": 4801, "transition": 4802, "models": 4803, "principle": 4804, "principals": 4805, "waste": 4806, "therapies": 4807, "nominate": 4808, "booklet": 4809, "booklets": 4810, "capture": 4811, "practical": 4812, "purchased": 4813, "purchasing": 4814, "purchases": 4815, "budgeting": 4816, "962": 4817, "9699": 4818, "janam": 4819, "janta": 4820, "january": 4821, "timings": 4822, "reality": 4823, "ateral": 4824, "choos": 4825, "maternity": 4826, "determining": 4827, "largest": 4828, "resulting": 4829, "progression": 4830, "properly": 4831, "positive": 4832, "possess": 4833, "possibility": 4834, "populated": 4835, "introduced": 4836, "options": 4837, "recipe": 4838, "legislative": 4839, "enhanced": 4840, "attached": 4841, "combine": 4842, "methods": 4843, "protein": 4844, "telephonic": 4845, "quantities": 4846, "intimidating": 4847, "focussed": 4848, "authentic": 4849, "authenticated": 4850, "matched": 4851, "convened": 4852, "blacklisting": 4853, "relaxations": 4854, "billing": 4855, "drone": 4856, "driver": 4857, "driven": 4858, "failure": 4859, "signature": 4860, "measurement": 4861, "superintend": 4862, "appointment": 4863, "herewith": 4864, "machines": 4865, "workshops": 4866, "modality": 4867, ".........................................................................................................": 4868, "entitlements": 4869, "mera": 4870, "merits": 4871, "thirty": 4872, "removal": 4873, "offences": 4874, "enterprises": 4875, "rajma": 4876, "allocate": 4877, "depth": 4878, "abhinand": 4879, "consist": 4880, "clearly": 4881, "gases": 4882, "pwds": 4883, "passed": 4884, "tablets": 4885, "wallet": 4886, "forwarded": 4887, "adjusted": 4888, "temperature": 4889, "competent": 4890, ".........................................................................................": 4891, "............................................................................................": 4892, "current": 4893, "birthday": 4894, "birthdays": 4895, "diagnosis": 4896, "diagnostics": 4897, "662": 4898, "breach": 4899, "breast": 4900, "break": 4901, "cular": 4902, "farm": 4903, "faridab": 4904, "revocation": 4905, "revenue": 4906, "oriented": 4907, "deviations": 4908, "poora": 4909, "poori": 4910, "weightage": 4911, "dispose": 4912, "standardized": 4913, "brigade": 4914, "draft": 4915, "longer": 4916, "mapped": 4917, "mixed": 4918, "simplifying": 4919, "escalated": 4920, "associations": 4921, "hotel": 4922, "adaptation": 4923, "administered": 4924, "accepting": 4925, "acceptance": 4926, "looking": 4927, "..............................................................": 4928, "mothers": 4929, "inclusion": 4930, "inclusive": 4931, "inclusivity": 4932, "integrity": 4933, "particulars": 4934, "technics": 4935, "flagged": 4936, "flagship": 4937, "writing": 4938, "deployment": 4939, "electronics": 4940, "girls": 4941, "aimed": 4942, "milk": 4943, "mung": 4944, "municip": 4945, "madhmik": 4946, "natural": 4947, "sabha": 4948, "solar": 4949, "vendor": 4950, "walls": 4951, "insights": 4952, "repute": 4953, "celebrated": 4954, "celebrations": 4955, "seminars": 4956, "irregularities": 4957, "majority": 4958, "highlighted": 4959, ".....................................................................................................................": 4960, "incentivised": 4961, "campaign": 4962, "analyse": 4963, "analytics": 4964, "individuals": 4965, "scrutiny": 4966, "scrutinized": 4967, "64vb": 4968, "dpcs": 4969, "dining": 4970, "gain": 4971, "ladwa": 4972, "nielit": 4973, "phased": 4974, "phases": 4975, "vote": 4976, "www": 4977, "influence": 4978, "oncology": 4979, "oncologist": 4980, "rehab": 4981, "remedy": 4982, "remedial": 4983, "alert": 4984, "alerts": 4985, "stream": 4986, "depot": 4987, "depots": 4988, "default": 4989, "defaulters": 4990, "versions": 4991, "april": 4992, "aprons": 4993, "connection": 4994, "connections": 4995, "confirmation": 4996, "umari": 4997, "reserved": 4998, "reservation": 4999, "...........................................": 5000, "understanding": 5001, "importance": 5002, "important": 5003, "whatsapp": 5004, "incorporation": 5005, "observes": 5006, "pamphlet": 5007, "pamphlets": 5008, "interruption": 5009, "appearing": 5010, "involvement": 5011, "waiting": 5012, "achieving": 5013, "biscuit": 5014, "biscuits": 5015, "recruit": 5016, "recruited": 5017, "3603": 5018, "5gm": 5019, "burnt": 5020, "circumstances": 5021, "dropouts": 5022, "duty": 5023, "fifo": 5024, "facts": 5025, "horizontal": 5026, "hildren": 5027, "jacket": 5028, "ngno": 5029, "petro": 5030, "pictures": 5031, "piped": 5032, "rationale": 5033, "situ": 5034, "tuesday": 5035, "tumor": 5036, "reimburs": 5037, "restriction": 5038, "refusal": 5039, "orthopaedic": 5040, "rohtak": 5041, "town": 5042, "protocols": 5043, "delegated": 5044, "spoons": 5045, "semi": 5046, "aggregation": 5047, "adhered": 5048, "containers": 5049, "logic": 5050, "ambit": 5051, "launching": 5052, "excluding": 5053, "reduced": 5054, "paramedics": 5055, "minister": 5056, "increased": 5057, "double": 5058, "quali\ufb01cation": 5059, "disputes": 5060, "tribune": 5061, "handicrafts": 5062, "polytechnics": 5063, "nutrients": 5064, "contamination": 5065, "ological": 5066, "artisans": 5067, "productivity": 5068, "suspicious": 5069, "supervising": 5070, "contributing": 5071, "electricity": 5072, "pumps": 5073, "milestones": 5074, "jeevan": 5075, "speaking": 5076, "ahl_h": 5077, "derived": 5078, "consecutively": 5079, "0172": 5080, "211306": 5081, "awp": 5082, "aforesaid": 5083, "bilateral": 5084, "bigger": 5085, "bhasker": 5086, "cylinders": 5087, "civil": 5088, "cipet": 5089, "fssai": 5090, "greater": 5091, "gurugram": 5092, "hilly": 5093, "history": 5094, "hindustan": 5095, "jagran": 5096, "jhajjar": 5097, "jyoti": 5098, "kucha": 5099, "kvk": 5100, "kalyan": 5101, "knowledge": 5102, "kesari": 5103, "mudra": 5104, "nrhm": 5105, "nuh": 5106, "nstructions": 5107, "pinni": 5108, "pillars": 5109, "ranted": 5110, "samiti": 5111, "swasthya": 5112, "swift": 5113, "tagged": 5114, "turnover": 5115, "vandana": 5116, "victim": 5117, "initial": 5118, "instead": 5119, "reveals": 5120, "reply": 5121, "repair": 5122, "revisions": 5123, "reminder": 5124, "reconstructive": 5125, "refresher": 5126, "alleged": 5127, "allegation": 5128, "original": 5129, "together": 5130, "isckon": 5131, "leveraging": 5132, "leafy": 5133, "beginning": 5134, "behalf": 5135, "meenakumari": 5136, "elaborated": 5137, "prominent": 5138, "unwarranted": 5139, "unloading": 5140, "allotted": 5141, "deposited": 5142, "abundant": 5143, "divisional": 5144, "hoardings": 5145, "adjudicate": 5146, "congratulated": 5147, "umbrella": 5148, "reskilling": 5149, "questions": 5150, "exhausted": 5151, "explanation": 5152, "comprehensive": 5153, "immediate": 5154, "irdai": 5155, "poushtik": 5156, "parliament": 5157, "parishad": 5158, "pariyojna": 5159, "prevalent": 5160, "motivated": 5161, "ghiye": 5162, "ophthalm": 5163, "declaration": 5164, "incubator": 5165, "nephrology": 5166, "memorandum": 5167, "primarily": 5168, "diseases": 5169, "discrimination": 5170, "disbursement": 5171, "disodia": 5172, "1448024": 5173, "2584522": 5174, "corresponding": 5175, "superintendent": 5176, "abhinandan": 5177, "faridabad": 5178, "municipal": 5179, "reimbursed": 5180, "ahl_hh_id": 5181}, "merges": [[".", "."], ["i", "n"], ["t", "h"], ["e", "n"], ["a", "n"], ["th", "e"], ["o", "n"], ["r", "e"], ["a", "t"], ["e", "r"], ["a", "l"], ["..", ".."], ["o", "r"], ["o", "f"], ["s", "t"], ["e", "d"], ["en", "t"], ["i", "t"], ["i", "on"], ["in", "g"], ["e", "s"], ["i", "c"], ["i", "l"], ["a", "r"], ["an", "d"], ["r", "o"], ["a", "s"], ["....", "...."], ["t", "o"], ["m", "ent"], ["i", "s"], ["l", "e"], ["c", "o"], ["c", "h"], ["b", "e"], ["at", "ion"], ["i", "d"], ["f", "or"], ["c", "t"], ["m", "e"], ["r", "a"], ["s", "u"], ["e", "l"], ["p", "ro"], ["s", "h"], ["c", "e"], ["il", "l"], ["u", "n"], ["m", "p"], ["al", "l"], ["d", "e"], ["a", "b"], ["at", "e"], ["d", "i"], ["f", "ic"], ["........", "........"], ["s", "p"], ["u", "t"], ["s", "e"], ["v", "e"], ["st", "r"], ["a", "y"], ["p", "er"], ["w", "ill"], ["ra", "in"], ["a", "g"], ["v", "er"], ["h", "o"], ["i", "th"], ["w", "ith"], ["an", "ce"], ["a", "re"], ["b", "y"], ["a", "d"], ["t", "rain"], ["o", "l"], ["a", "p"], ["a", "c"], ["u", "r"], ["s", "ch"], ["e", "t"], ["i", "es"], ["ar", "y"], ["st", "ate"], ["c", "on"], ["l", "o"], ["un", "d"], ["n", "o"], ["pro", "v"], ["es", "s"], ["u", "l"], ["it", "y"], ["r", "i"], ["t", "e"], ["u", "m"], ["t", "er"], ["re", "s"], ["a", "m"], ["q", "u"], ["l", "a"], ["i", "f"], ["train", "ing"], ["p", "m"], ["e", "c"], ["sh", "all"], ["e", "x"], ["h", "e"], ["t", "a"], ["co", "mp"], ["ct", "ion"], ["p", "l"], ["h", "a"], ["i", "m"], ["re", "d"], ["an", "y"], ["di", "str"], ["ic", "t"], ["it", "al"], ["er", "s"], ["en", "e"], ["le", "ment"], ["i", "v"], ["................", "................"], ["distr", "ict"], ["ar", "d"], ["fic", "i"], ["t", "i"], ["c", "ent"], ["i", "r"], ["u", "p"], ["i", "g"], ["m", "m"], ["s", "k"], ["e", "ct"], ["o", "d"], ["or", "t"], ["sp", "ital"], ["ho", "spital"], ["prov", "id"], ["n", "h"], ["b", "ene"], ["in", "su"], ["sk", "ill"], ["g", "o"], ["p", "o"], ["und", "er"], ["i", "ve"], ["the", "r"], ["co", "mm"], ["nh", "pm"], ["at", "ed"], ["as", "e"], ["v", "el"], ["d", "ay"], ["e", "mp"], ["s", "o"], ["at", "es"], ["p", "ar"], ["t", "r"], ["bene", "fici"], ["i", "mp"], ["i", "al"], ["p", "re"], ["o", "ol"], ["as", "s"], ["sch", "ool"], ["m", "o"], ["p", "ort"], ["f", "ro"], ["in", "t"], ["fro", "m"], ["e", "v"], ["f", "o"], ["sch", "e"], ["i", "b"], ["2", "0"], ["r", "s"], ["en", "d"], ["m", "a"], ["ab", "le"], ["b", "as"], ["u", "s"], ["fic", "ation"], ["ag", "e"], ["d", "u"], ["w", "e"], ["st", "e"], ["m", "on"], ["sche", "me"], ["l", "y"], ["o", "ut"], ["i", "i"], ["m", "s"], ["imp", "lement"], ["u", "d"], ["g", "h"], ["r", "ance"], ["i", "p"], ["en", "c"], ["c", "and"], ["cand", "id"], ["0", "0"], ["u", "re"], ["no", "t"], ["a", "il"], ["an", "el"], ["ha", "ve"], ["a", "f"], ["b", "er"], ["sp", "ec"], ["emp", "anel"], ["m", "in"], ["insu", "rance"], ["i", "z"], ["o", "p"], ["it", "ion"], ["il", "ity"], ["benefici", "ary"], ["u", "gh"], ["th", "at"], ["re", "qu"], ["c", "ation"], ["c", "la"], ["m", "an"], ["ver", "n"], ["go", "vern"], ["in", "st"], ["u", "st"], ["for", "m"], ["i", "ed"], ["ri", "ev"], ["a", "v"], ["l", "i"], ["re", "g"], ["de", "c"], ["govern", "ment"], ["g", "riev"], ["cla", "im"], ["k", "e"], ["o", "ther"], ["ro", "ugh"], ["be", "en"], ["un", "t"], ["th", "rough"], ["s", "er"], ["ass", "ess"], ["c", "er"], ["w", "h"], ["le", "vel"], ["in", "c"], ["lo", "w"], ["par", "t"], ["o", "k"], ["av", "ail"], ["g", "et"], ["h", "as"], ["it", "te"], ["am", "il"], ["comm", "itte"], ["n", "e"], ["it", "or"], ["id", "ent"], ["me", "al"], ["f", "amil"], ["m", "ay"], ["it", "ies"], ["pro", "c"], ["c", "ase"], ["f", "in"], ["ti", "me"], ["of", "fic"], ["se", "c"], ["ul", "d"], ["d", "o"], ["ag", "enc"], ["g", "e"], ["w", "or"], ["ed", "u"], ["s", "a"], ["al", "th"], ["he", "alth"], ["ic", "al"], ["fo", "od"], ["committe", "e"], ["a", "u"], ["ser", "v"], ["c", "an"], ["re", "sp"], ["or", "d"], ["sh", "a"], ["g", "u"], ["i", "fication"], ["j", "ect"], ["s", "al"], ["al", "so"], ["me", "m"], ["su", "ch"], ["griev", "ance"], ["r", "al"], ["en", "ce"], ["i", "um"], ["o", "uld"], ["if", "ied"], ["bas", "ed"], ["m", "ed"], ["p", "ay"], ["ac", "k"], ["wor", "k"], ["co", "ok"], ["on", "e"], ["cent", "ral"], ["candid", "ates"], ["it", "s"], ["ment", "s"], ["comp", "any"], ["an", "t"], ["ation", "al"], ["ad", "d"], ["mon", "itor"], ["m", "id"], ["sh", "are"], ["i", "str"], ["co", "st"], ["implement", "ation"], ["l", "in"], ["at", "or"], ["g", "ra"], ["ic", "h"], ["is", "ion"], ["spec", "ial"], ["e", "ar"], ["gu", "id"], ["g", "r"], ["tr", "ust"], ["d", "at"], ["en", "su"], ["monitor", "ing"], ["l", "ed"], ["p", "r"], ["su", "p"], ["et", "c"], ["requ", "i"], ["wh", "ich"], ["edu", "cation"], ["h", "el"], ["i", "st"], ["in", "es"], ["ct", "or"], ["di", "re"], ["school", "s"], ["c", "k"], ["f", "ol"], ["n", "um"], ["ic", "es"], ["ap", "pl"], ["n", "s"], ["ib", "le"], ["p", "ri"], ["th", "is"], ["re", "ce"], ["str", "u"], ["ta", "k"], ["fol", "low"], ["a", "ch"], ["b", "o"], ["i", "a"], ["re", "le"], ["20", "1"], ["with", "in"], ["guid", "el"], ["pre", "m"], ["f", "er"], ["s", "y"], ["ap", "prov"], ["qu", "al"], ["ta", "il"], ["the", "ir"], ["de", "tail"], ["o", "b"], ["comp", "la"], ["guidel", "ines"], ["sy", "ste"], ["1", "0"], ["an", "c"], ["tr", "an"], ["i", "o"], ["empanel", "ment"], ["inc", "l"], ["proc", "ess"], ["num", "ber"], ["p", "a"], ["on", "s"], ["sh", "ould"], ["se", "t"], ["................................", "................................"], ["k", "it"], ["pm", "k"], ["famil", "y"], ["agenc", "y"], ["c", "um"], ["t", "re"], ["w", "he"], ["in", "di"], ["is", "su"], ["hospital", "s"], ["day", "s"], ["assess", "ment"], ["o", "w"], ["a", "ct"], ["f", "ac"], ["ab", "ility"], ["provid", "ed"], ["add", "ition"], ["prem", "ium"], ["m", "is"], ["an", "n"], ["pro", "ject"], ["p", "res"], ["t", "ar"], ["st", "ates"], ["min", "istr"], ["compla", "int"], ["d", "is"], ["v", "y"], ["ic", "e"], ["dat", "a"], ["tre", "at"], ["f", "ra"], ["de", "vel"], ["ut", "ion"], ["ig", "n"], ["pmk", "vy"], ["devel", "op"], ["n", "ational"], ["o", "per"], ["e", "st"], ["f", "und"], ["t", "ed"], ["y", "ear"], ["per", "s"], ["cer", "ti"], ["syste", "m"], ["g", "rain"], ["su", "b"], ["avail", "able"], ["appl", "ic"], ["treat", "ment"], ["the", "re"], ["to", "t"], ["ensu", "re"], ["ch", "en"], ["ac", "c"], ["ur", "s"], ["au", "th"], ["tar", "get"], ["f", "e"], ["r", "pl"], ["s", "c"], ["w", "ard"], ["co", "unt"], ["ver", "y"], ["ne", "ed"], ["kit", "chen"], ["3", "0"], ["ex", "ec"], ["red", "res"], ["age", "ment"], ["af", "ter"], ["tak", "en"], ["detail", "s"], ["grain", "s"], ["m", "d"], ["p", "h"], ["am", "o"], ["ction", "s"], ["mem", "ber"], ["develop", "ment"], [")", "."], ["1", "5"], ["c", "u"], ["d", "es"], ["t", "y"], ["on", "g"], ["ct", "ed"], ["ac", "count"], ["insu", "re"], ["ns", "d"], ["indi", "a"], ["redres", "sal"], ["amo", "unt"], ["in", "form"], ["at", "ive"], ["af", "f"], ["sup", "port"], ["insure", "r"], ["in", "du"], ["exec", "ut"], ["c", "r"], ["c", "are"], ["c", "ard"], ["d", "ur"], ["t", "ing"], ["nsd", "c"], ["pro", "gra"], ["ig", "h"], ["serv", "ices"], ["follow", "ing"], ["u", "b"], ["id", "e"], ["per", "i"], ["mon", "th"], ["iz", "ed"], ["do", "cu"], ["gr", "c"], ["v", "i"], ["in", "ter"], ["re", "port"], ["ro", "l"], ["lo", "ck"], ["empanel", "led"], ["incl", "ud"], ["md", "m"], ["d", "el"], ["de", "part"], ["dec", "ision"], ["sa", "me"], ["rece", "iv"], ["auth", "or"], ["n", "or"], ["s", "ion"], ["ing", "s"], ["te", "am"], ["lement", "ary"], ["man", "agement"], ["inst", "it"], ["all", "y"], ["train", "ers"], ["ib", "ility"], ["tot", "al"], ["c", "i"], ["j", "ob"], ["m", "and"], ["t", "ra"], ["w", "as"], ["il", "d"], ["ation", "s"], ["he", "ad"], ["candid", "ate"], ["fac", "il"], ["a", "st"], ["e", "f"], ["e", "lementary"], ["m", "at"], ["p", "e"], ["ch", "an"], ["resp", "ons"], ["l", "d"], ["ent", "s"], ["ar", "ies"], ["ect", "ive"], ["g", "ro"], ["ho", "ld"], ["offic", "er"], ["lin", "e"], ["requi", "red"], ["5", "0"], ["re", "c"], ["el", "ig"], ["cr", "it"], ["b", "ers"], ["p", "en"], ["p", "ack"], ["me", "et"], ["pro", "po"], ["provid", "er"], ["skill", "ing"], ["pay", "ment"], ["depart", "ment"], ["e", "ction"], ["u", "se"], ["ab", "o"], ["qual", "ity"], ["dur", "ing"], ["a", "me"], ["f", "i"], ["en", "er"], ["ab", "l"], ["ver", "ification"], ["avail", "ability"], ["addition", "al"], ["certi", "fication"], ["indu", "str"], [")", ","], ["t", "w"], ["t", "end"], ["on", "ly"], ["ii", "i"], ["pres", "ent"], ["progra", "m"], ["nor", "ms"], ["crit", "er"], ["m", "it"], ["p", "at"], ["v", "is"], ["re", "t"], ["be", "ing"], ["ag", "a"], ["ad", "ha"], ["provid", "e"], ["benefici", "aries"], ["le", "t"], ["ate", "g"], ["project", "s"], ["inform", "ation"], ["includ", "ing"], ["adha", "ar"], ["c", "ap"], ["n", "on"], ["re", "l"], ["district", "s"], ["implement", "ing"], ["approv", "al"], ["criter", "ia"], ["aga", "inst"], ["a", "ction"], ["g", "iv"], ["g", "ener"], ["o", "ver"], ["t", "ri"], ["er", "ing"], ["it", "e"], ["con", "du"], ["famil", "ies"], ["offic", "ers"], ["stru", "ct"], ["1", "2"], ["a", "adhaar"], ["b", "lock"], ["f", "un"], ["en", "g"], ["the", "se"], ["re", "e"], ["il", "e"], ["ro", "le"], ["med", "ical"], ["pa", "id"], ["whe", "re"], ["execut", "ive"], ["1", "4"], ["o", "j"], ["p", "ra"], ["po", "st"], ["fund", "s"], ["f", "ul"], ["o", "m"], ["u", "al"], ["an", "a"], ["the", "y"], ["ch", "ar"], ["ta", "in"], ["cent", "re"], ["claim", "s"], ["assess", "or"], ["mem", "bers"], ["rele", "ase"], ["a", "ir"], ["b", "ack"], ["m", "ar"], ["st", "ud"], ["co", "un"], ["ard", "ing"], ["port", "al"], ["receiv", "ed"], ["abo", "ve"], ["program", "me"], ["1", "1"], ["d", "g"], ["h", "c"], ["is", "h"], ["ch", "ec"], ["ch", "ild"], ["su", "r"], ["el", "l"], ["lo", "y"], ["li", "st"], ["sec", "ret"], ["industr", "y"], ["chec", "k"], ["secret", "ary"], ["e", "ach"], ["o", "s"], ["ap", "pro"], ["cent", "res"], ["approv", "ed"], ["peri", "od"], ["rec", "ord"], ["giv", "en"], ["1", "3"], ["n", "ame"], ["is", "e"], ["le", "ast"], ["ma", "de"], ["ident", "ification"], ["requi", "re"], ["io", "us"], ["act", "iv"], ["gro", "up"], ["struct", "ure"], ["c", "ateg"], ["e", "hc"], ["h", "igh"], ["n", "ha"], ["p", "end"], ["y", "s"], ["in", "v"], ["di", "f"], ["iv", "es"], ["comm", "un"], ["inst", "all"], ["reg", "ul"], ["agenc", "ies"], ["tran", "sa"], ["docu", "ment"], ["pen", "al"], ["categ", "or"], ["ehc", "p"], ["c", "ar"], ["c", "as"], ["m", "od"], ["n", "ed"], ["o", "cation"], ["p", "ur"], ["r", "en"], ["s", "s"], ["v", "al"], ["or", "g"], ["st", "and"], ["se", "ctor"], ["ho", "urs"], ["li", "ke"], ["fin", "anc"], ["ord", "er"], ["dire", "ctor"], ["pri", "or"], ["issu", "ed"], ["des", "ign"], ["facil", "ities"], ["elig", "ible"], ["a", "ke"], ["d", "one"], ["s", "ed"], ["t", "ified"], ["on", "line"], ["at", "ing"], ["it", "ed"], ["le", "ar"], ["be", "t"], ["ms", "de"], ["iz", "ation"], ["201", "9"], ["applic", "able"], ["org", "an"], ["c", "al"], ["c", "ro"], ["c", "all"], ["e", "w"], ["e", "qu"], ["h", "and"], ["i", "ent"], ["el", "d"], ["im", "um"], ["emp", "loy"], ["mo", "de"], ["resp", "ective"], ["mis", "sion"], ["ann", "ex"], ["vi", "ew"], ["rel", "ated"], ["install", "ment"], ["financ", "ial"], ["1", "8"], ["e", "very"], ["i", "fic"], ["n", "ec"], ["t", "ion"], ["th", "en"], ["st", "ake"], ["me", "chan"], ["di", "es"], ["spec", "ific"], ["dec", "id"], ["fin", "al"], ["anc", "es"], ["applic", "ation"], ["fi", "eld"], ["child", "ren"], ["activ", "ities"], ["nec", "ess"], ["stake", "hold"], ["b", "al"], ["l", "if"], ["p", "ol"], ["t", "s"], ["in", "sp"], ["en", "s"], ["en", "rol"], ["re", "as"], ["of", "fici"], ["el", "f"], ["we", "en"], ["oper", "ator"], ["est", "abl"], ["propo", "sal"], ["bet", "ween"], ["annex", "ure"], ["mechan", "is"], ["necess", "ary"], ["establ", "ish"], ["2", "5"], ["a", "id"], ["c", "re"], ["d", "al"], ["n", "ing"], ["in", "d"], ["th", "an"], ["re", "co"], ["di", "g"], ["ad", "ministr"], ["fo", "re"], ["bas", "is"], ["us", "ed"], ["ub", "l"], ["del", "i"], ["in", "te"], ["st", "o"], ["st", "aff"], ["all", "ow"], ["pl", "an"], ["we", "b"], ["requ", "est"], ["reg", "arding"], ["ist", "ing"], ["................................................................", "................................"], ["oj", "t"], ["deli", "very"], ["/", "-"], ["b", "r"], ["g", "n"], ["g", "y"], ["g", "ed"], ["j", "ection"], ["n", "ut"], ["r", "ic"], ["w", "ar"], ["in", "fra"], ["at", "tend"], ["al", "ong"], ["ic", "y"], ["sh", "ip"], ["ve", "st"], ["ap", "pe"], ["prov", "ision"], ["po", "int"], ["we", "re"], ["hel", "pers"], ["pers", "on"], ["acc", "red"], ["val", "id"], ["pol", "icy"], ["dig", "ital"], ["infra", "structure"], ["appe", "al"], ["1", "6"], ["p", "ut"], ["p", "la"], ["s", "id"], ["in", "vest"], ["provid", "ers"], ["ma", "in"], ["cook", "ing"], ["instit", "ut"], ["transa", "ction"], ["decid", "ed"], ["reco", "gn"], ["invest", "ig"], ["2", "4"], ["c", "l"], ["d", "ate"], ["e", "m"], ["f", "ir"], ["p", "ubl"], ["r", "y"], ["s", "sc"], ["w", "ho"], ["w", "ould"], ["es", "cro"], ["sh", "ort"], ["ag", "es"], ["con", "cer"], ["ta", "ke"], ["comp", "li"], ["up", "on"], ["go", "v"], ["man", "ag"], ["ator", "y"], ["gr", "ant"], ["set", "t"], ["ow", "n"], ["instit", "ution"], ["ef", "f"], ["mit", "ted"], ["dif", "fer"], ["regul", "ar"], ["categor", "y"], ["equ", "ip"], ["mechanis", "m"], ["escro", "w"], ["4", "5"], ["c", "c"], ["e", "k"], ["h", "i"], ["re", "view"], ["ment", "ion"], ["co", "l"], ["co", "ver"], ["el", "y"], ["de", "e"], ["ut", "il"], ["ho", "me"], ["et", "y"], ["con", "t"], ["ter", "m"], ["bene", "f"], ["mo", "re"], ["ste", "ering"], ["enc", "y"], ["tra", "ck"], ["tw", "o"], ["assessor", "s"], ["nut", "r"], ["pla", "ce"], ["publ", "ic"], ["concer", "ned"], ["a", "ward"], ["b", "an"], ["f", "a"], ["p", "ul"], ["r", "an"], ["en", "ess"], ["re", "jection"], ["co", "re"], ["ch", "air"], ["un", "it"], ["ur", "se"], ["lo", "ad"], ["if", "y"], ["part", "ic"], ["sup", "pl"], ["hel", "p"], ["ministr", "y"], ["respons", "ibility"], ["differ", "ent"], ["nutr", "ition"], ["5", "00"], ["6", "0"], ["a", "ud"], ["re", "st"], ["as", "ed"], ["all", "ocation"], ["de", "fin"], ["res", "ol"], ["griev", "ances"], ["whe", "ther"], ["complaint", "s"], ["ph", "ys"], ["pat", "ient"], ["fun", "ction"], ["stud", "ents"], ["lear", "ning"], ["administr", "ative"], ["attend", "ance"], ["f", "ci"], ["h", "ary"], ["n", "er"], ["s", "grc"], ["it", "i"], ["le", "g"], ["ch", "ap"], ["con", "d"], ["res", "s"], ["mo", "b"], ["ident", "ified"], ["urs", "es"], ["meet", "ings"], ["let", "ter"], ["char", "ge"], ["mar", "k"], ["penal", "ty"], ["defin", "ed"], ["chap", "ter"], ["2", "1"], ["2", "2"], ["b", "ed"], ["c", "or"], ["i", "ste"], ["k", "h"], ["p", "s"], ["u", "ra"], ["re", "comm"], ["re", "present"], ["be", "fore"], ["de", "mand"], ["ab", "out"], ["ut", "s"], ["ol", "o"], ["con", "stru"], ["ex", "isting"], ["provid", "ing"], ["so", "c"], ["ip", "t"], ["ne", "w"], ["work", "ing"], ["lin", "k"], ["rece", "ipt"], ["bo", "dies"], ["respons", "ible"], ["inte", "rest"], ["investig", "ation"], ["gov", "t"], ["hary", "ana"], ["iste", "red"], ["recomm", "end"], ["3", "8"], ["d", "ated"], ["g", "ap"], ["p", "y"], ["v", "ar"], ["v", "ant"], ["on", "ce"], ["at", "ure"], ["co", "urses"], ["se", "le"], ["mo", "h"], ["du", "e"], ["issu", "es"], ["fra", "me"], ["docu", "ments"], ["report", "s"], ["cap", "ac"], ["sur", "g"], ["fir", "st"], ["compli", "ance"], ["1", "7"], ["2", "7"], ["e", "i"], ["f", "w"], ["f", "ed"], ["f", "ur"], ["g", "ence"], ["h", "ub"], ["p", "t"], ["u", "res"], ["v", "ed"], ["er", "g"], ["al", "u"], ["ic", "ation"], ["ar", "ter"], ["is", "ed"], ["................", "........"], ["ver", "gence"], ["con", "vergence"], ["ter", "r"], ["qu", "arter"], ["comm", "on"], ["ev", "alu"], ["us", "ing"], ["reg", "istered"], ["sec", "c"], ["dire", "ct"], ["dire", "cted"], ["rele", "ased"], ["rele", "vant"], ["pack", "age"], ["pack", "ages"], ["gener", "al"], ["condu", "cted"], ["coun", "c"], ["cas", "es"], ["stand", "ard"], ["mention", "ed"], ["mob", "ile"], ["moh", "fw"], ["ei", "ther"], ["a", "k"], ["a", "war"], ["c", "s"], ["h", "er"], ["i", "k"], ["n", "et"], ["s", "ide"], ["w", "ell"], ["at", "ch"], ["il", "i"], ["as", "p"], ["co", "urse"], ["ab", "ase"], ["se", "par"], ["te", "st"], ["ex", "peri"], ["pl", "at"], ["up", "load"], ["we", "ek"], ["serv", "ice"], ["gra", "ph"], ["dat", "abase"], ["certi", "fic"], ["condu", "ct"], ["dg", "no"], ["group", "s"], ["sto", "res"], ["recogn", "ition"], ["partic", "ip"], ["constru", "ction"], ["capac", "ity"], ["terr", "itor"], ["4", "0"], ["a", "e"], ["c", "ri"], ["f", "le"], ["l", "ess"], ["m", "ary"], ["n", "ic"], ["p", "are"], ["p", "ia"], ["s", "end"], ["in", "e"], ["in", "stru"], ["ad", "y"], ["train", "er"], ["con", "v"], ["no", "dal"], ["te", "ch"], ["te", "ach"], ["ter", "n"], ["ta", "ct"], ["distr", "ib"], ["so", "ci"], ["pre", "pare"], ["fo", "und"], ["rs", "by"], ["reg", "istr"], ["cer", "tified"], ["pri", "mary"], ["tak", "ing"], ["ign", "ed"], ["fe", "ed"], ["rol", "es"], ["del", "ay"], ["mat", "ter"], ["pend", "ing"], ["insp", "ection"], ["offici", "o"], ["ind", "ic"], ["ssc", "s"], ["manag", "er"], ["sett", "lement"], ["institution", "s"], ["var", "ious"], ["fur", "ther"], ["counc", "il"], ["awar", "eness"], ["plat", "form"], ["ae", "bas"], ["1", "9"], ["1", "00"], ["b", "ut"], ["c", "us"], ["g", "es"], ["h", "on"], ["s", "m"], ["s", "es"], ["s", "elf"], ["in", "iti"], ["is", "a"], ["is", "ation"], ["be", "low"], ["un", "ion"], ["per", "form"], ["ho", "we"], ["ap", "p"], ["ur", "al"], ["con", "tact"], ["skill", "s"], ["requ", "is"], ["ord", "in"], ["pr", "int"], ["pr", "inc"], ["need", "s"], ["aff", "ili"], ["tra", "ct"], ["facil", "it"], ["require", "ments"], ["pur", "po"], ["design", "ated"], ["organ", "iz"], ["stakehold", "ers"], ["allow", "ed"], ["em", "erg"], ["eff", "ective"], ["olo", "gy"], ["soc", "ial"], ["hub", "s"], ["fle", "x"], ["howe", "ver"], ["3", "6"], ["d", "grc"], ["g", "ard"], ["h", "an"], ["l", "es"], ["m", "es"], ["m", "ust"], ["o", "ur"], ["r", "at"], ["s", "ent"], ["y", "a"], ["in", "to"], ["or", "ar"], ["ic", "ally"], ["to", "ward"], ["ch", "e"], ["ce", "o"], ["de", "v"], ["se", "cond"], ["ag", "ed"], ["ur", "n"], ["lo", "cal"], ["ul", "es"], ["op", "en"], ["meal", "s"], ["cook", "ed"], ["hel", "per"], ["appl", "y"], ["year", "s"], ["acc", "ess"], ["author", "ity"], ["fun", "ctions"], ["ful", "l"], ["commun", "ity"], ["bal", "ance"], ["enrol", "ment"], ["accred", "ited"], ["track", "ing"], ["phys", "ical"], ["certific", "ate"], ["instru", "ctions"], [".", ")"], ["b", "u"], ["j", "o"], ["l", "ab"], ["n", "grc"], ["p", "an"], ["r", "ing"], ["r", "ural"], ["s", "af"], ["u", "de"], ["v", "ent"], ["v", "ide"], ["x", "imum"], ["re", "fer"], ["re", "ady"], ["ar", "t"], ["as", "k"], ["co", "ura"], ["pro", "du"], ["per", "cent"], ["are", "as"], ["con", "tract"], ["lo", "cation"], ["comp", "le"], ["ha", "fed"], ["ir", "t"], ["ma", "il"], ["ma", "ximum"], ["min", "imum"], ["dec", "ide"], ["ge", "st"], ["ns", "q"], ["incl", "ude"], ["sub", "mission"], ["receiv", "ing"], ["cl", "ass"], ["col", "le"], ["award", "ing"], ["aud", "it"], ["evalu", "ation"], ["territor", "ies"], ["registr", "ation"], ["hon", "orar"], ["gard", "ens"], ["rat", "io"], ["jo", "int"], ["honorar", "ium"], ["2", "9"], ["b", "ro"], ["c", "le"], ["c", "ur"], ["d", "han"], ["g", "ms"], ["h", "ar"], ["r", "ice"], ["en", "coura"], ["re", "pr"], ["at", "us"], ["st", "t"], ["ent", "repr"], ["ar", "ch"], ["su", "g"], ["ce", "ed"], ["un", "i"], ["ve", "get"], ["ur", "ship"], ["ul", "ated"], ["la", "kh"], ["ene", "urship"], ["cent", "er"], ["pre", "par"], ["20", "20"], ["ma", "ke"], ["au", "to"], ["pr", "of"], ["detail", "ed"], ["ministr", "ies"], ["oper", "ational"], ["target", "s"], ["mand", "atory"], ["equip", "ment"], ["benef", "its"], ["frame", "work"], ["experi", "ence"], ["purpo", "se"], ["entrepr", "eneurship"], ["2", "8"], ["7", "0"], ["b", "l"], ["b", "ud"], ["b", "atch"], ["i", "x"], ["i", "at"], ["k", "ing"], ["n", "ature"], ["p", "or"], ["p", "ed"], ["p", "es"], ["r", "ules"], ["s", "ing"], ["s", "core"], ["v", "ing"], ["v", "iz"], ["in", "cent"], ["th", "ree"], ["of", "fer"], ["of", "fe"], ["st", "er"], ["st", "atus"], ["it", "ation"], ["ar", "ran"], ["and", "ing"], ["is", "l"], ["for", "tified"], ["su", "l"], ["se", "arch"], ["ver", "ified"], ["train", "ed"], ["ul", "t"], ["ex", "t"], ["20", "0"], ["00", "0"], ["ge", "o"], ["med", "ium"], ["bo", "th"], ["bo", "ard"], ["fra", "ud"], ["sub", "mitted"], ["fe", "es"], ["execut", "ives"], ["elig", "ibility"], ["vis", "it"], ["inv", "ol"], ["lif", "ting"], ["reas", "ons"], ["valid", "ation"], ["institut", "es"], ["resol", "ution"], ["feed", "back"], ["requis", "ite"], ["organiz", "ations"], ["dev", "ices"], ["nsq", "f"], ["sug", "gest"], ["offe", "red"], ["9", "0"], ["b", "a"], ["f", "ree"], ["g", "in"], ["m", "al"], ["n", "d"], ["o", "se"], ["r", "ation"], ["t", "ies"], ["u", "red"], ["w", "ise"], ["y", "es"], ["en", "u"], ["al", "s"], ["al", "ready"], ["ic", "s"], ["ar", "ing"], ["ro", "ss"], ["as", "su"], ["is", "es"], ["co", "me"], ["su", "sp"], ["pro", "ve"], ["pro", "ceed"], ["with", "out"], ["ac", "ross"], ["ri", "ed"], ["res", "our"], ["la", "st"], ["im", "prove"], ["ect", "iv"], ["ass", "ist"], ["sche", "mes"], ["reg", "ist"], ["wh", "en"], ["ident", "ity"], ["do", "w"], ["med", "ia"], ["add", "ress"], ["ensu", "ring"], ["qual", "ification"], ["tran", "che"], ["fac", "ility"], ["des", "h"], ["ty", "pes"], ["month", "ly"], ["author", "ization"], ["gener", "ation"], ["pra", "desh"], ["high", "er"], ["car", "ried"], ["stakehold", "er"], ["reas", "on"], ["br", "anding"], ["main", "tain"], ["chair", "person"], ["suppl", "y"], ["direct", "ly"], ["cri", "bed"], ["tech", "n"], ["distrib", "ution"], ["soci", "ety"], ["prepare", "d"], ["pan", "ch"], ["bro", "ad"], ["geo", "graph"], [".", ","], ["3", "1"], ["c", "a"], ["c", "es"], ["d", "en"], ["h", "im"], ["s", "l"], ["u", "sh"], ["y", "g"], ["an", "al"], ["the", "m"], ["re", "ject"], ["at", "is"], ["ion", "s"], ["ro", "om"], ["co", "ordin"], ["ch", "i"], ["id", "ence"], ["ra", "di"], ["sh", "ow"], ["ho", "ur"], ["ad", "v"], ["con", "st"], ["am", "ong"], ["ha", "ving"], ["up", "skilling"], ["ma", "ster"], ["bas", "ic"], ["spec", "ified"], ["man", "tri"], ["fin", "ance"], ["serv", "ing"], ["hel", "d"], ["pri", "v"], ["qual", "ified"], ["syste", "ms"], ["tran", "s"], ["tran", "sp"], ["ann", "ual"], ["there", "of"], ["ty", "pe"], ["meet", "ing"], ["over", "all"], ["eng", "aged"], ["pra", "dhan"], ["appro", "ve"], ["car", "ry"], ["mod", "el"], ["establish", "ment"], ["provision", "s"], ["separ", "ate"], ["test", "ing"], ["princ", "ip"], ["facilit", "ate"], ["encoura", "ged"], ["ba", "j"], ["proceed", "ings"], ["6", "00"], ["a", "ver"], ["c", "lock"], ["d", "a"], ["e", "con"], ["h", "is"], ["i", "an"], ["n", "go"], ["p", "ho"], ["s", "of"], ["s", "atis"], ["t", "ask"], ["w", "a"], ["the", "ra"], ["re", "fund"], ["at", "ives"], ["er", "y"], ["ed", "iat"], ["il", "y"], ["ro", "und"], ["as", "h"], ["ch", "ann"], ["sh", "g"], ["ab", "s"], ["ve", "t"], ["ag", "ree"], ["con", "sid"], ["no", "min"], ["am", "in"], ["ect", "ed"], ["ser", "ver"], ["inc", "ident"], ["proc", "edu"], ["serv", "ed"], ["resp", "on"], ["cook", "s"], ["central", "ized"], ["ear", "li"], ["bo", "ok"], ["pa", "ediat"], ["set", "ting"], ["pres", "cribed"], ["dis", "charge"], ["target", "ed"], ["igh", "t"], ["ild", "ing"], ["propo", "sed"], ["tw", "are"], ["cap", "t"], ["pra", "ct"], ["ful", "ly"], ["record", "s"], ["pur", "ch"], ["employ", "ment"], ["dee", "os"], ["ban", "k"], ["represent", "ative"], ["net", "work"], ["affili", "ated"], ["emerg", "ency"], ["flex", "ibility"], ["bu", "ilding"], ["saf", "ety"], ["percent", "age"], ["bud", "get"], ["arran", "ge"], ["regist", "er"], ["chi", "ef"], ["priv", "ate"], ["aver", "age"], ["econ", "om"], ["pho", "to"], ["sof", "tware"], ["procedu", "res"], ["paediat", "ric"], ["0", "9"], ["2", "6"], ["3", "9"], ["9", "6"], ["b", "ase"], ["c", "au"], ["c", "vet"], ["d", "s"], ["f", "l"], ["f", "ut"], ["j", "an"], ["l", "ac"], ["l", "im"], ["n", "al"], ["n", "cvet"], ["o", "t"], ["o", "il"], ["t", "im"], ["v", "ii"], ["w", "r"], ["w", "om"], ["y", "an"], ["y", "oj"], ["en", "ance"], ["re", "al"], ["at", "er"], ["st", "ip"], ["ent", "it"], ["ic", "u"], ["co", "py"], ["ch", "o"], ["pro", "mo"], ["de", "ter"], ["de", "pending"], ["se", "e"], ["ho", "use"], ["res", "ident"], ["ex", "pen"], ["pl", "ann"], ["fici", "ent"], ["ect", "s"], ["po", "w"], ["so", "me"], ["int", "enance"], ["ma", "intenance"], ["ure", "ment"], ["man", "ner"], ["cer", "tain"], ["committe", "es"], ["offic", "e"], ["special", "ist"], ["201", "3"], ["set", "up"], ["indu", "ction"], ["mat", "er"], ["gro", "und"], ["char", "ges"], ["stud", "ent"], ["appro", "pri"], ["require", "ment"], ["commun", "ication"], ["cas", "h"], ["accred", "itation"], ["institut", "e"], ["mark", "et"], ["cor", "por"], ["asp", "ects"], ["teach", "er"], ["toward", "s"], ["const", "it"], ["earli", "er"], ["cau", "se"], ["fut", "ure"], ["wom", "en"], ["stip", "ulated"], ["deter", "min"], ["2", "3"], ["3", "00"], ["b", "io"], ["c", "ch"], ["c", "lin"], ["d", "ail"], ["e", "co"], ["f", "ficient"], ["j", "ust"], ["k", "sh"], ["l", "ar"], ["m", "ul"], ["m", "enu"], ["n", "am"], ["p", "le"], ["r", "ates"], ["t", "ent"], ["t", "urn"], ["w", "are"], ["y", "o"], ["..", "."], ["in", "ary"], ["th", "a"], ["re", "ct"], ["re", "sul"], ["....", "."], ["ed", "ure"], ["ro", "du"], ["ra", "ised"], ["pro", "g"], ["pro", "per"], ["sh", "irt"], ["sh", "aring"], ["ce", "p"], ["mp", "les"], ["ay", "ush"], ["con", "f"], ["lo", "dg"], ["comp", "let"], ["up", "to"], ["mm", "es"], ["po", "s"], ["po", "ss"], ["po", "pul"], ["port", "ability"], ["int", "rodu"], ["implement", "ed"], ["op", "tion"], ["wh", "ile"], ["proc", "edure"], ["offic", "es"], ["pay", "ments"], ["special", "ties"], ["follow", "s"], ["issu", "e"], ["mis", "s"], ["sub", "ject"], ["kitchen", "s"], ["ph", "one"], ["dur", "ation"], ["rec", "ip"], ["vis", "its"], ["sur", "ge"], ["appro", "ach"], ["director", "ate"], ["establish", "ed"], ["equip", "ped"], ["benef", "it"], ["leg", "isl"], ["sele", "ction"], ["surg", "ical"], ["surg", "ery"], ["upload", "ed"], ["lab", "or"], ["assu", "rance"], ["thera", "py"], ["shg", "s"], ["appropri", "ate"], ["clin", "ical"], ["dail", "y"], ["eco", "system"], ["mul", "ti"], ["ayush", "man"], ["0", "3"], ["1", "st"], ["2", "nd"], ["3", "3"], ["4", "8"], ["b", "or"], ["b", "od"], ["c", "lo"], ["d", "ed"], ["h", "ard"], ["h", "yg"], ["n", "ext"], ["o", "c"], ["r", "d"], ["r", "on"], ["r", "ate"], ["s", "g"], ["s", "im"], ["u", "c"], ["u", "dies"], ["v", "ision"], ["y", "cle"], ["th", "od"], ["en", "h"], ["an", "s"], ["re", "la"], ["at", "ta"], ["st", "udies"], ["ent", "ly"], ["ic", "ated"], ["il", "ar"], ["il", "ator"], ["ar", "o"], ["ar", "s"], ["co", "m"], ["co", "uld"], ["ct", "v"], ["me", "thod"], ["pro", "of"], ["pro", "te"], ["sh", "op"], ["sh", "ik"], ["ce", "pt"], ["de", "al"], ["di", "u"], ["ve", "y"], ["per", "mitted"], ["ur", "ban"], ["lo", "c"], ["no", "w"], ["te", "le"], ["ter", "s"], ["qu", "ant"], ["ex", "tend"], ["pl", "inary"], ["go", "od"], ["pre", "v"], ["pre", "fer"], ["int", "im"], ["fo", "cus"], ["ste", "p"], ["not", "ice"], ["iz", "e"], ["ke", "y"], ["ident", "ify"], ["proc", "urement"], ["trust", "s"], ["follow", "ed"], ["bo", "arding"], ["201", "8"], ["prem", "ises"], ["ob", "ject"], ["compla", "in"], ["dis", "ci"], ["auth", "ent"], ["progra", "mmes"], ["inter", "nal"], ["head", "s"], ["mat", "ch"], ["fi", "x"], ["abl", "es"], ["pat", "tern"], ["over", "see"], ["coun", "s"], ["list", "ed"], ["proposal", "s"], ["cont", "ent"], ["place", "ment"], ["conv", "en"], ["sm", "c"], ["bl", "ack"], ["sing", "le"], ["incent", "ive"], ["invol", "ved"], ["dow", "n"], ["trans", "fer"], ["princip", "al"], ["satis", "f"], ["task", "s"], ["respon", "se"], ["capt", "ured"], ["pract", "ices"], ["yoj", "ana"], ["resident", "ial"], ["mater", "ial"], ["conf", "idence"], ["complet", "ion"], ["surge", "on"], ["bod", "y"], ["hyg", "i"], ["sim", "ilar"], ["rela", "x"], ["disci", "plinary"], ["0", "8"], ["3", "7"], ["5", "5"], ["b", "ill"], ["d", "r"], ["d", "ri"], ["e", "le"], ["f", "ill"], ["f", "ail"], ["i", "as"], ["k", "i"], ["s", "mo"], ["s", "ign"], ["w", "ay"], ["en", "sion"], ["re", "en"], ["re", "di"], ["al", "igned"], ["it", "ure"], ["ion", "al"], ["ing", "redi"], ["ar", "h"], ["ar", "ted"], ["to", "a"], ["me", "as"], ["su", "per"], ["sh", "e"], ["ab", "hi"], ["ut", "e"], ["ut", "ed"], ["str", "ateg"], ["are", "a"], ["ap", "point"], ["con", "n"], ["no", "te"], ["ex", "p"], ["ex", "per"], ["ex", "pend"], ["ex", "amin"], ["he", "re"], ["up", "dated"], ["par", "ame"], ["ma", "ch"], ["ste", "ps"], ["op", "ted"], ["level", "s"], ["fin", "d"], ["do", "ctor"], ["work", "shop"], ["share", "d"], ["num", "bers"], ["201", "5"], ["whe", "at"], ["dis", "cus"], ["sub", "mit"], ["there", "after"], ["acc", "ident"], ["support", "ing"], ["author", "ities"], ["mand", "ated"], ["tri", "bal"], ["eng", "agement"], ["back", "ward"], ["back", "ground"], ["ys", "is"], ["inv", "ite"], ["mod", "al"], ["insp", "ect"], ["cre", "ation"], ["cre", "ate"], ["................................................................................................", "........"], ["cover", "age"], ["dee", "med"], ["util", "isation"], ["standard", "s"], ["asp", "ir"], ["contract", "ual"], ["comple", "ted"], ["prepar", "ation"], ["offer", "ing"], ["resour", "ces"], ["radi", "o"], ["consid", "er"], ["ds", "d"], ["tim", "es"], ["entit", "lement"], ["corpor", "ation"], ["resul", "ts"], ["prog", "ress"], ["recip", "es"], ["bor", "ne"], ["hard", "ware"], ["aro", "und"], ["shik", "sha"], ["prev", "ious"], ["complain", "ant"], ["ingredi", "ents"], ["abhi", "yan"], ["expend", "iture"], ["0", "1"], ["0", "7"], ["5", "4"], ["5", "8"], ["8", "9"], ["a", "i"], ["a", "ctions"], ["e", "e"], ["e", "es"], ["e", "as"], ["f", "air"], ["g", "ing"], ["i", "ec"], ["l", "p"], ["l", "ate"], ["l", "abo"], ["m", "er"], ["m", "ated"], ["o", "th"], ["s", "ms"], ["v", "id"], ["v", "iii"], ["th", "ir"], ["en", "able"], ["an", "ies"], ["re", "mo"], ["al", "ized"], ["of", "f"], ["st", "or"], ["ent", "er"], ["ro", "ti"], ["me", "tr"], ["ra", "j"], ["su", "cc"], ["su", "fficient"], ["all", "oc"], ["de", "p"], ["ab", "h"], ["ab", "led"], ["per", "miss"], ["ho", "w"], ["ad", "opted"], ["ur", "u"], ["sch", "edu"], ["con", "s"], ["con", "tri"], ["con", "vey"], ["ul", "a"], ["ul", "um"], ["ex", "c"], ["ta", "x"], ["comp", "on"], ["comp", "anies"], ["ir", "ing"], ["under", "take"], ["so", "ur"], ["imp", "act"], ["ass", "igned"], ["port", "un"], ["ma", "king"], ["out", "side"], ["op", "portun"], ["reg", "ard"], ["assess", "ments"], ["get", "ting"], ["time", "line"], ["au", "sh"], ["pay", "able"], ["work", "er"], ["201", "7"], ["indi", "an"], ["acc", "ord"], ["card", "s"], ["includ", "ed"], ["ast", "er"], ["mar", "gin"], ["ell", "ing"], ["period", "ic"], ["sector", "s"], ["enrol", "led"], ["cre", "ated"], ["ric", "ulum"], ["util", "ization"], ["award", "ed"], ["suppl", "ied"], ["function", "ing"], ["represent", "atives"], ["link", "ed"], ["recommend", "ed"], ["gap", "s"], ["conduct", "ing"], ["council", "s"], ["print", "ed"], ["vent", "ilator"], ["produ", "ce"], ["comple", "te"], ["class", "es"], ["cur", "riculum"], ["veget", "able"], ["veget", "ables"], ["auto", "mated"], ["susp", "ension"], ["techn", "ology"], ["geograph", "ies"], ["reject", "ed"], ["ngo", "s"], ["agree", "ment"], ["lim", "ited"], ["cho", "ose"], ["house", "hold"], ["expen", "ses"], ["plann", "ing"], ["specialist", "s"], ["popul", "ation"], ["legisl", "ation"], ["ded", "icated"], ["prote", "ction"], ["fix", "ed"], ["ele", "ct"], ["parame", "ters"], ["accident", "al"], ["labo", "ur"], ["succ", "ess"], ["permiss", "ible"], ["schedu", "le"], ["margin", "alized"], ["%", "."], ["0", "2"], ["0", "4"], ["3", "4"], ["8", "5"], [":", "-"], ["a", "de"], ["b", "ir"], ["c", "lear"], ["e", "p"], ["e", "mail"], ["g", "as"], ["i", "re"], ["k", "a"], ["k", "ar"], ["k", "aush"], ["l", "ing"], ["m", "u"], ["m", "ic"], ["p", "w"], ["p", "ass"], ["p", "ias"], ["s", "ar"], ["s", "can"], ["t", "p"], ["t", "ation"], ["t", "able"], ["t", "cs"], ["u", "e"], ["u", "le"], ["w", "al"], ["in", "put"], ["the", "at"], ["re", "main"], ["at", "ely"], ["al", "ay"], ["ent", "ry"], ["ent", "ire"], ["il", "ing"], ["as", "on"], ["is", "ing"], ["ch", "all"], ["for", "ward"], ["ra", "m"], ["ra", "ise"], ["ab", "ly"], ["di", "ag"], ["sp", "a"], ["ve", "red"], ["str", "ict"], ["ver", "s"], ["ver", "t"], ["ad", "just"], ["ur", "ity"], ["con", "side"], ["ul", "y"], ["te", "mp"], ["am", "s"], ["comp", "et"], ["comp", "os"], ["pl", "ay"], ["under", "taken"], ["under", "taking"], ["emp", "has"], ["tr", "y"], ["ust", "ed"], ["claim", "ed"], ["part", "y"], ["part", "ies"], ["sec", "urity"], ["do", "es"], ["health", "care"], ["resp", "ect"], ["ord", "ers"], ["ant", "s"], ["gra", "m"], ["dire", "ctions"], ["ach", "i"], ["process", "es"], ["................................................................", "........................"], ["sc", "reen"], ["need", "ed"], ["des", "k"], ["account", "s"], ["depart", "ments"], ["author", "isation"], ["chan", "a"], ["present", "ed"], ["ite", "ms"], ["tain", "ed"], ["document", "ary"], ["mod", "ule"], ["organ", "ized"], ["employ", "ability"], ["tion", "s"], ["lif", "e"], ["................................................................................................", "........................"], ["cc", "n"], ["cont", "in"], ["pul", "ses"], ["resol", "ved"], ["mark", "s"], ["sele", "cted"], ["separ", "ately"], ["indic", "ative"], ["class", "room"], ["cur", "r"], ["lakh", "s"], ["prof", "ile"], ["address", "ing"], ["anal", "ysis"], ["adv", "ance"], ["transp", "ar"], ["carry", "ing"], ["purch", "ase"], ["nam", "es"], ["yo", "u"], ["lodg", "ing"], ["introdu", "ction"], ["multi", "ple"], ["quant", "ity"], ["extend", "ed"], ["couns", "elling"], ["smo", "oth"], ["meas", "ures"], ["discus", "sed"], ["aspir", "ational"], ["lp", "g"], ["stor", "age"], ["compon", "ent"], ["bir", "th"], ["kaush", "al"], ["theat", "re"], ["diag", "no"], ["conside", "red"], ["emphas", "is"], [")", "/"], ["3", "2"], ["4", "4"], ["4", "6"], ["4", "7"], ["4", "50"], ["5", "6"], ["5", "9"], ["6", "6"], ["8", "0"], ["b", "re"], ["b", "ur"], ["b", "order"], ["c", "ed"], ["c", "ul"], ["c", "ycle"], ["c", "ctv"], ["d", "ing"], ["f", "t"], ["f", "it"], ["f", "ar"], ["f", "ig"], ["f", "low"], ["g", "ist"], ["h", "ip"], ["h", "iring"], ["i", "ents"], ["i", "ya"], ["k", "er"], ["k", "uru"], ["k", "ula"], ["l", "we"], ["m", "ag"], ["n", "q"], ["n", "ag"], ["n", "ers"], ["n", "abh"], ["p", "u"], ["p", "un"], ["r", "as"], ["s", "we"], ["t", "c"], ["t", "ill"], ["u", "ally"], ["v", "irt"], ["w", "elf"], ["y", "on"], ["in", "no"], ["th", "ose"], ["en", "ar"], ["en", "abled"], ["re", "v"], ["al", "a"], ["or", "s"], ["or", "y"], ["or", "ient"], ["st", "ic"], ["st", "art"], ["il", "ities"], ["ar", "di"], ["to", "ol"], ["le", "ad"], ["co", "vered"], ["ch", "em"], ["be", "yon"], ["pro", "port"], ["un", "toward"], ["de", "vi"], ["de", "pend"], ["de", "put"], ["ut", "tar"], ["se", "qu"], ["se", "ason"], ["ay", "at"], ["ad", "h"], ["ad", "vert"], ["et", "ra"], ["ri", "gh"], ["ter", "ms"], ["am", "an"], ["ex", "emp"], ["ir", "y"], ["up", "date"], ["nh", "m"], ["insu", "red"], ["po", "or"], ["po", "ol"], ["so", "ugh"], ["par", "a"], ["par", "ents"], ["end", "ed"], ["us", "er"], ["we", "ight"], ["ition", "s"], ["form", "ed"], ["sa", "mples"], ["ification", "s"], ["med", "ic"], ["work", "ers"], ["istr", "ate"], ["lin", "es"], ["special", "ty"], ["rece", "ive"], ["ach", "al"], ["anc", "ed"], ["pres", "ence"], ["dis", "po"], ["oper", "ations"], ["pers", "ons"], ["sub", "sequ"], ["sc", "enar"], ["month", "s"], ["inter", "net"], ["nor", "th"], ["tend", "ering"], ["pat", "ients"], ["vis", "ed"], ["rel", "ating"], ["dg", "c"], ["name", "ly"], ["transa", "ctions"], ["stand", "ardi"], ["ens", "ive"], ["offici", "al"], ["offici", "als"], ["administr", "ation"], ["point", "s"], ["recogn", "ized"], ["manag", "ing"], ["eff", "ectiv"], ["hi", "re"], ["util", "ized"], ["fa", "q"], ["aud", "its"], ["teach", "ers"], ["initi", "ated"], ["perform", "ance"], ["affili", "ation"], ["access", "ible"], ["cle", "an"], ["uni", "vers"], ["suggest", "ed"], ["suggest", "ions"], ["panch", "kula"], ["panch", "ayat"], ["ca", "ste"], ["coordin", "ator"], ["transp", "ort"], ["baj", "re"], ["baj", "ra"], ["chann", "a"], ["chann", "el"], ["nomin", "ated"], ["pow", "er"], ["ksh", "etra"], ["turn", "around"], ["poss", "ible"], ["authent", "ication"], ["oversee", "ing"], ["satisf", "ied"], ["hygi", "ene"], ["relax", "ation"], ["exper", "ts"], ["mach", "ine"], ["find", "ings"], ["modal", "ities"], ["dsd", "ps"], ["thir", "d"], ["alloc", "ated"], ["convey", "ance"], ["tax", "es"], ["accord", "ance"], ["sar", "v"], ["chall", "eng"], ["spa", "ce"], ["compos", "ition"], ["you", "th"], ["kuru", "kshetra"], ["mag", "istrate"], ["nq", "as"], ["welf", "are"], ["inno", "v"], ["beyon", "d"], ["proport", "ion"], ["deput", "y"], ["righ", "t"], ["sough", "t"], ["scenar", "io"], ["standardi", "z"], ["univers", "ities"], ["#", ")"], ["(", "#)"], [")", ":"], [".", ")."], ["0", "6"], ["2", "25"], ["3", "5"], ["4", "2"], ["5", "1"], ["7", "2"], ["8", "8"], ["a", "o"], ["b", "ri"], ["b", "ution"], ["b", "har"], ["c", "ensu"], ["d", "ra"], ["d", "uly"], ["e", "os"], ["e", "tha"], ["e", "aster"], ["f", "r"], ["f", "us"], ["g", "er"], ["g", "he"], ["g", "ir"], ["g", "end"], ["h", "um"], ["i", "pl"], ["j", "ail"], ["k", "s"], ["l", "ong"], ["m", "ber"], ["m", "app"], ["m", "ix"], ["o", "cc"], ["q", "p"], ["r", "usted"], ["s", "co"], ["s", "imp"], ["s", "av"], ["u", "ro"], ["v", "es"], ["w", "in"], ["y", "c"], ["y", "ing"], ["in", "charges"], ["an", "tha"], ["re", "li"], ["re", "marks"], ["er", "r"], ["al", "ent"], ["....", ".."], ["ent", "rusted"], ["es", "cal"], ["as", "than"], ["as", "soci"], ["is", "sion"], ["co", "de"], ["ch", "and"], ["be", "eos"], ["pro", "b"], ["ce", "iling"], ["un", "e"], ["un", "its"], ["mp", "le"], ["di", "fication"], ["di", "ments"], ["ag", "ing"], ["ag", "griev"], ["ho", "t"], ["ad", "ap"], ["ad", "min"], ["ad", "her"], ["train", "ees"], ["ac", "cep"], ["ac", "cept"], ["con", "diments"], ["lo", "ok"], ["lo", "gy"], ["prov", "ing"], ["qu", "iry"], ["training", "s"], ["ex", "tern"], ["ta", "ste"], ["pl", "ac"], ["im", "proving"], ["iv", "alent"], ["................................", "........................"], ["up", "per"], ["comm", "ence"], ["imp", "arted"], ["mo", "ther"], ["mo", "us"], ["mo", "dification"], ["ev", "en"], ["we", "st"], ["enc", "es"], ["spec", "ifications"], ["min", "d"], ["man", "power"], ["form", "at"], ["av", "o"], ["ke", "pt"], ["part", "ners"], ["time", "ly"], ["do", "main"], ["au", "g"], ["sal", "t"], ["med", "i"], ["its", "elf"], ["ator", "ily"], ["ich", "di"], ["special", "ized"], ["ear", "ned"], ["guid", "ance"], ["pr", "antha"], ["dire", "ction"], ["bo", "und"], ["incl", "us"], ["indi", "vid"], ["addition", "ally"], ["mis", "use"], ["dis", "play"], ["fund", "ing"], ["inform", "ed"], ["aff", "ected"], ["care", "er"], ["inter", "national"], ["inter", "vent"], ["mand", "atorily"], ["was", "h"], ["chan", "ges"], ["industr", "ies"], ["block", "s"], ["block", "ed"], ["post", "s"], ["coun", "try"], ["car", "di"], ["design", "ing"], ["equ", "ivalent"], ["hand", "book"], ["establish", "ments"], ["inte", "gr"], ["allow", "ance"], ["request", "ed"], ["br", "ing"], ["cc", "gms"], ["pul", "ao"], ["chair", "man"], ["partic", "ul"], ["nutrition", "al"], ["function", "al"], ["kh", "ichdi"], ["new", "s"], ["link", "ing"], ["particip", "ation"], ["particip", "ating"], ["conv", "ocation"], ["tech", "nic"], ["indic", "ated"], ["sm", "all"], ["initi", "ate"], ["princ", "ipl"], ["emerg", "ing"], ["uni", "form"], ["auto", "mat"], ["ult", "ure"], ["resour", "ce"], ["improve", "ment"], ["ectiv", "ity"], ["maintain", "ed"], ["techn", "ical"], ["geograph", "ical"], ["show", "cause"], ["among", "st"], ["da", "al"], ["arrange", "ment"], ["econom", "ic"], ["photo", "graph"], ["fl", "ag"], ["wr", "it"], ["wr", "ong"], ["pow", "ers"], ["determin", "ed"], ["bio", "metr"], ["pos", "ition"], ["clo", "se"], ["enh", "ance"], ["com", "ments"], ["method", "ology"], ["deal", "t"], ["loc", "ally"], ["prefer", "ably"], ["object", "ives"], ["bill", "s"], ["fail", "s"], ["strateg", "y"], ["conn", "ectivity"], ["exp", "ected"], ["examin", "ation"], ["off", "ence"], ["raj", "asthan"], ["dep", "loy"], ["cons", "isting"], ["contri", "bution"], ["exc", "ess"], ["household", "s"], ["elect", "ron"], ["mic", "ro"], ["pw", "d"], ["input", "s"], ["screen", "ing"], ["curr", "ently"], ["swe", "et"], ["virt", "ual"], ["chem", "ical"], ["season", "al"], ["advert", "ise"], ["medic", "ines"], ["challeng", "es"], ["innov", "ative"], ["censu", "s"], ["easter", "n"], ["ghe", "e"], ["gir", "l"], ["hum", "an"], ["aggriev", "ed"], ["adher", "ence"], ["commence", "ment"], ["principl", "es"], ["0", "5"], ["1", "20"], ["4", "1"], ["4", "3"], ["4", "9"], ["5", "2"], ["7", "1"], ["7", "4"], ["7", "5"], ["a", "ut"], ["a", "im"], ["b", "im"], ["b", "ust"], ["b", "eng"], ["c", "ell"], ["e", "ve"], ["e", "ating"], ["f", "m"], ["f", "u"], ["f", "re"], ["g", "ar"], ["g", "fr"], ["h", "al"], ["h", "ence"], ["i", "or"], ["j", "or"], ["j", "ar"], ["j", "ab"], ["j", "am"], ["k", "g"], ["k", "end"], ["k", "ash"], ["l", "igh"], ["m", "c"], ["m", "il"], ["m", "un"], ["m", "ir"], ["m", "adh"], ["n", "a"], ["n", "at"], ["o", "x"], ["o", "ugh"], ["o", "ice"], ["o", "mous"], ["r", "ut"], ["r", "up"], ["s", "r"], ["s", "ab"], ["s", "ol"], ["s", "sa"], ["s", "ix"], ["s", "ize"], ["t", "en"], ["t", "ps"], ["v", "en"], ["v", "ill"], ["v", "ul"], ["v", "end"], ["v", "ied"], ["v", "ice"], ["w", "all"], ["w", "atch"], ["w", "ater"], ["in", "s"], ["in", "charge"], ["in", "king"], ["an", "g"], ["on", "omous"], ["re", "put"], ["re", "placement"], ["at", "al"], ["at", "ures"], ["al", "e"], ["al", "tern"], ["st", "ing"], ["ed", "ing"], ["ent", "ial"], ["ent", "ices"], ["it", "es"], ["il", "s"], ["ar", "m"], ["ro", "bust"], ["as", "certain"], ["le", "br"], ["le", "vied"], ["co", "oper"], ["ch", "ed"], ["ch", "es"], ["ch", "ai"], ["be", "st"], ["for", "ce"], ["for", "ms"], ["me", "ans"], ["su", "m"], ["ce", "lebr"], ["un", "necessary"], ["mp", "a"], ["de", "fici"], ["de", "pt"], ["fic", "ult"], ["sp", "ent"], ["ut", "ens"], ["se", "min"], ["se", "ek"], ["se", "eding"], ["str", "eng"], ["ag", "re"], ["ap", "pr"], ["con", "struct"], ["con", "sul"], ["lo", "gin"], ["ri", "x"], ["res", "sed"], ["la", "id"], ["ex", "cep"], ["iv", "ely"], ["ti", "e"], ["ti", "k"], ["ti", "fication"], ["cent", "ers"], ["ir", "regular"], ["ect", "ing"], ["skill", "ed"], ["go", "i"], ["po", "tent"], ["under", "go"], ["comm", "ission"], ["mo", "st"], ["mo", "ong"], ["mo", "dif"], ["int", "ensive"], ["fo", "ur"], ["ib", "ilities"], ["20", "2"], ["ma", "jor"], ["we", "igh"], ["out", "come"], ["ip", "ur"], ["enc", "ies"], ["cla", "use"], ["govern", "ing"], ["form", "al"], ["li", "able"], ["reg", "ional"], ["other", "s"], ["ser", "ve"], ["ne", "uro"], ["ator", "ies"], ["education", "ally"], ["pa", "per"], ["issu", "ance"], ["act", "ive"], ["act", "ual"], ["fac", "ed"], ["develop", "ed"], ["there", "fore"], ["fe", "atures"], ["sc", "rut"], ["sc", "ale"], ["aff", "air"], ["support", "ed"], ["report", "ing"], ["includ", "es"], ["author", "ized"], ["head", "quarter"], ["mat", "rix"], ["tw", "ice"], ["mit", "ra"], ["let", "s"], ["giv", "ing"], ["check", "s"], ["check", "ed"], ["high", "ligh"], ["inv", "ited"], ["inv", "oice"], ["dif", "ficult"], ["commun", "ities"], ["categor", "ies"], ["sector", "al"], ["organ", "ization"], ["cro", "re"], ["hand", "ed"], ["employ", "er"], ["tion", "al"], ["operator", "s"], ["mechanis", "ms"], ["dal", "iya"], ["sto", "red"], ["web", "s"], ["................................................................................................", "................"], ["valid", "ity"], ["investig", "ations"], ["cl", "ust"], ["sett", "led"], ["regular", "ly"], ["hi", "red"], ["fa", "ce"], ["fa", "ther"], ["function", "aries"], ["ner", "able"], ["cor", "rect"], ["soc", "io"], ["interest", "ed"], ["sele", "ct"], ["quarter", "ly"], ["cri", "min"], ["found", "ation"], ["initi", "atives"], ["perform", "ed"], ["ordin", "ation"], ["print", "ing"], ["saf", "e"], ["refer", "ence"], ["location", "s"], ["colle", "ction"], ["colle", "cted"], ["prepar", "ing"], ["prof", "ess"], ["incent", "iv"], ["isl", "and"], ["mal", "e"], ["assist", "ant"], ["ca", "mpa"], ["den", "ied"], ["him", "alay"], ["anal", "y"], ["coordin", "ate"], ["adv", "anced"], ["refund", "ed"], ["incident", "s"], ["arrange", "ments"], ["econom", "y"], ["paediatric", "ian"], ["promo", "te"], ["cash", "less"], ["constit", "ution"], ["constit", "uted"], ["cch", "s"], ["labor", "atories"], ["sg", "c"], ["sg", "no"], ["deal", "ing"], ["now", "led"], ["tele", "phone"], ["intim", "ation"], ["identify", "ing"], ["object", "ive"], ["conven", "or"], ["black", "listed"], ["dri", "ve"], ["way", "s"], ["appoint", "ed"], ["late", "st"], ["sour", "ces"], ["opportun", "ity"], ["success", "fully"], ["remain", "ing"], ["........................................................................................................................", ".."], ["contin", "u"], ["transpar", "ent"], ["bur", "den"], ["pun", "jab"], ["orient", "ation"], ["lead", "ing"], ["proportion", "ate"], ["standardiz", "ation"], ["bhar", "at"], ["gend", "er"], ["win", "dow"], ["reli", "ef"], ["prob", "le"], ["extern", "al"], ["plac", "ed"], ["avo", "id"], ["individ", "ual"], ["wash", "ing"], ["chairman", "ship"], ["automat", "ically"], ["biometr", "ic"], ["aut", "onomous"], ["bim", "a"], ["beng", "al"], ["fre", "sh"], ["jam", "mu"], ["kash", "mir"], ["vul", "nerable"], ["entices", "hip"], ["chai", "red"], ["utens", "ils"], ["appr", "enticeship"], ["potent", "ial"], ["scrut", "in"], ["affair", "s"], ["himalay", "an"], ["%", ")"], ["3", "500"], ["3", "rd"], ["5", "7"], ["6", "4"], ["7", "00"], ["8", "3"], ["9", "5"], ["b", "i"], ["b", "s"], ["b", "ar"], ["b", "is"], ["b", "sk"], ["b", "us"], ["b", "ind"], ["d", "p"], ["d", "y"], ["d", "in"], ["d", "le"], ["d", "no"], ["d", "sc"], ["e", "y"], ["f", "p"], ["f", "all"], ["f", "ib"], ["f", "requ"], ["f", "fer"], ["f", "ast"], ["g", "a"], ["g", "ur"], ["g", "lo"], ["g", "reg"], ["h", "at"], ["h", "ad"], ["i", "ance"], ["j", "e"], ["k", "he"], ["k", "sha"], ["k", "yc"], ["l", "l"], ["l", "an"], ["l", "ay"], ["l", "ad"], ["m", "b"], ["m", "me"], ["n", "i"], ["n", "st"], ["n", "ad"], ["n", "urs"], ["o", "o"], ["o", "us"], ["o", "ting"], ["p", "al"], ["p", "ic"], ["p", "su"], ["p", "te"], ["p", "has"], ["p", "anc"], ["p", "unit"], ["r", "ill"], ["r", "un"], ["r", "bsk"], ["r", "fp"], ["s", "en"], ["s", "ely"], ["t", "n"], ["t", "ro"], ["t", "ate"], ["t", "amil"], ["v", "o"], ["v", "ocation"], ["w", "w"], ["w", "ing"], ["x", "7"], ["x", "i"], ["in", "ess"], ["in", "patient"], ["in", "ik"], ["in", "fl"], ["th", "al"], ["th", "ical"], ["en", "ic"], ["en", "abl"], ["en", "vis"], ["en", "quiry"], ["an", "other"], ["the", "ti"], ["on", "es"], ["on", "co"], ["on", "board"], ["on", "atal"], ["re", "h"], ["re", "ase"], ["re", "med"], ["re", "ach"], ["re", "cr"], ["re", "tained"], ["at", "tent"], ["al", "er"], ["....", "..."], ["or", "por"], ["st", "an"], ["st", "re"], ["st", "age"], ["st", "arted"], ["ed", "ul"], ["ent", "ion"], ["it", "a"], ["it", "is"], ["it", "ive"], ["es", "ar"], ["es", "ho"], ["es", "theti"], ["ic", "he"], ["il", "et"], ["and", "aman"], ["as", "ing"], ["as", "es"], ["to", "ilet"], ["for", "ts"], ["for", "tification"], ["su", "mm"], ["un", "ch"], ["mp", "h"], ["all", "iance"], ["de", "po"], ["de", "fa"], ["de", "fib"], ["ab", "use"], ["................", "...."], ["sp", "e"], ["ut", "er"], ["se", "ver"], ["se", "pte"], ["str", "ong"], ["ver", "sion"], ["ver", "ify"], ["ith", "al"], ["are", "st"], ["ad", "we"], ["ad", "vised"], ["ap", "i"], ["ap", "r"], ["ap", "art"], ["ur", "ing"], ["ur", "red"], ["sch", "edul"], ["con", "ne"], ["con", "fir"], ["lo", "go"], ["lo", "sed"], ["no", "ss"], ["ess", "ential"], ["ul", "ation"], ["te", "mples"], ["um", "ar"], ["res", "er"], ["qu", "e"], ["qu", "ate"], ["la", "ksh"], ["pm", "u"], ["ec", "ycle"], ["ex", "a"], ["ex", "pres"], ["ex", "cept"], ["ta", "sting"], ["comp", "uter"], ["pl", "ates"], ["pl", "ine"], ["red", "u"], ["ene", "ver"], ["iv", "ity"], ["................................", "........"], ["ti", "ve"], ["up", "ational"], ["ig", "ence"], ["ig", "ns"], ["ig", "arh"], ["provid", "es"], ["go", "ing"], ["under", "stand"], ["imp", "ort"], ["imp", "art"], ["mo", "u"], ["ev", "idence"], ["ud", "war"], ["enc", "ed"], ["enc", "losed"], ["not", "ified"], ["not", "ify"], ["empanel", "ed"], ["min", "or"], ["min", "ated"], ["op", "a"], ["man", "age"], ["inst", "ance"], ["li", "fication"], ["ke", "ep"], ["unt", "il"], ["ser", "ious"], ["wh", "at"], ["wh", "iche"], ["wh", "enever"], ["inc", "rease"], ["inc", "orpor"], ["part", "ner"], ["avail", "ing"], ["ne", "onatal"], ["ne", "arest"], ["proc", "ured"], ["do", "minated"], ["wor", "th"], ["sa", "id"], ["food", "grains"], ["can", "not"], ["add", "ressed"], ["mid", "dle"], ["ensu", "red"], ["sup", "p"], ["hel", "pline"], ["ist", "ence"], ["201", "0"], ["201", "4"], ["guidel", "ine"], ["ob", "ar"], ["ob", "serv"], ["ob", "jection"], ["tran", "ches"], ["process", "ing"], ["pa", "th"], ["pa", "pers"], ["pa", "mph"], ["pmk", "ks"], ["issu", "ing"], ["dis", "cre"], ["oper", "ability"], ["there", "upon"], ["exec", "ution"], ["md", "ms"], ["aff", "ecting"], ["inter", "rup"], ["inter", "operability"], ["ef", "forts"], ["pe", "an"], ["chan", "ged"], ["respons", "ibilities"], ["hold", "ing"], ["crit", "ical"], ["propo", "se"], ["fi", "re"], ["industr", "ial"], ["vis", "e"], ["cap", "tive"], ["approval", "s"], ["gener", "ated"], ["tri", "p"], ["where", "in"], ["where", "ver"], ["ana", "estheti"], ["list", "ing"], ["os", "copy"], ["13", "5"], ["activ", "ity"], ["regul", "ations"], ["regul", "atory"], ["penal", "ties"], ["ehcp", "s"], ["pur", "i"], ["cal", "cul"], ["decid", "es"], ["field", "s"], ["lif", "ecycle"], ["ubl", "esho"], ["request", "s"], ["................................................................................................", ".."], ["person", "al"], ["valid", "ated"], ["appeal", "s"], ["24", "x7"], ["regular", "ity"], ["col", "leg"], ["cont", "rol"], ["fa", "ctor"], ["ran", "k"], ["help", "desk"], ["phys", "ically"], ["function", "ary"], ["leg", "al"], ["demand", "ing"], ["recommend", "ations"], ["evalu", "ated"], ["ak", "hand"], ["cs", "r"], ["territor", "y"], ["nic", "obar"], ["distrib", "uted"], ["feed", "ing"], ["sm", "t"], ["app", "ear"], ["requis", "ites"], ["flex", "i"], ["second", "ary"], ["open", "ed"], ["vide", "os"], ["refer", "red"], ["produ", "ced"], ["29", "00"], ["uni", "que"], ["prof", "it"], ["bl", "ended"], ["invol", "ve"], ["qualification", "s"], ["him", "achal"], ["yg", "en"], ["da", "inik"], ["wa", "it"], ["agree", "ments"], ["consid", "ering"], ["nomin", "ee"], ["promo", "tion"], ["expen", "se"], ["plann", "ed"], ["determin", "e"], ["lar", "ger"], ["lodg", "ed"], ["labor", "atory"], ["clo", "sely"], ["uc", "n"], ["ctv", "s"], ["prefer", "ence"], ["intim", "ated"], ["satisf", "action"], ["hygi", "enic"], ["similar", "ly"], ["dr", "inking"], ["she", "et"], ["examin", "ed"], ["invite", "e"], ["radio", "therapy"], ["eas", "ily"], ["mer", "it"], ["remo", "te"], ["opportun", "ities"], ["success", "ful"], ["ade", "quate"], ["ka", "ithal"], ["adjust", "ing"], ["temp", "late"], ["achi", "ev"], ["achi", "eve"], ["diagno", "stic"], ["fig", "ure"], ["nag", "ar"], ["uttar", "akhand"], ["dispo", "sal"], ["subsequ", "ent"], ["effectiv", "eness"], ["channel", "s"], ["youth", "s"], ["bri", "ef"], ["dra", "w"], ["jail", "s"], ["mapp", "ing"], ["occ", "upational"], ["sco", "pe"], ["simp", "lification"], ["sav", "ing"], ["err", "or"], ["escal", "ation"], ["chand", "igarh"], ["une", "thical"], ["adap", "ting"], ["accep", "ted"], ["aug", "ust"], ["particul", "ar"], ["writ", "ten"], ["wrong", "ful"], ["chemical", "s"], ["fu", "el"], ["kend", "ras"], ["ox", "ygen"], ["vill", "age"], ["defici", "encies"], ["streng", "th"], ["agre", "es"], ["consul", "tation"], ["excep", "tional"], ["commission", "er"], ["modif", "ied"], ["weigh", "ing"], ["neuro", "surgery"], ["webs", "ite"], ["clust", "er"], ["profess", "ional"], ["island", "s"], ["continu", "ous"], ["proble", "m"], ["bis", "cu"], ["bus", "iness"], ["bind", "ing"], ["dy", "nam"], ["frequ", "ency"], ["gur", "udwar"], ["khe", "er"], ["lan", "gu"], ["nad", "u"], ["nurs", "ing"], ["punit", "ive"], ["rill", "ator"], ["tro", "ublesho"], ["vocation", "al"], ["enabl", "ing"], ["envis", "aged"], ["recr", "u"], ["attent", "ion"], ["summ", "ary"], ["defib", "rillator"], ["adwe", "ep"], ["schedul", "ed"], ["laksh", "adweep"], ["keep", "ing"], ["whiche", "ver"], ["discre", "panc"], ["anaestheti", "st"], ["colleg", "es"], ["gurudwar", "a"], ["troublesho", "oting"], ["*", "*"], ["3", "60"], ["5", "3"], ["5", "g"], ["5", "40"], ["6", "1"], ["6", "2"], ["6", "5"], ["6", "8"], ["6", "9"], ["7", "3"], ["7", "7"], ["9", "7"], ["a", "h"], ["a", "ay"], ["b", "t"], ["b", "ho"], ["b", "lo"], ["b", "und"], ["b", "rough"], ["b", "urse"], ["b", "urn"], ["c", "m"], ["c", "ir"], ["c", "mo"], ["c", "gh"], ["d", "m"], ["d", "er"], ["d", "il"], ["d", "ro"], ["d", "ut"], ["d", "ad"], ["d", "ates"], ["d", "ition"], ["d", "ge"], ["d", "aman"], ["e", "red"], ["e", "ctions"], ["f", "il"], ["f", "et"], ["f", "if"], ["f", "ms"], ["f", "act"], ["f", "ile"], ["f", "ron"], ["g", "ul"], ["g", "ive"], ["g", "arh"], ["h", "m"], ["h", "or"], ["h", "ra"], ["h", "rs"], ["h", "end"], ["h", "du"], ["h", "ild"], ["h", "rd"], ["i", "er"], ["i", "ence"], ["j", "ing"], ["j", "ud"], ["j", "ack"], ["j", "har"], ["k", "w"], ["k", "or"], ["k", "as"], ["k", "ad"], ["k", "con"], ["k", "im"], ["k", "ti"], ["k", "io"], ["k", "hand"], ["k", "ind"], ["k", "mc"], ["l", "as"], ["l", "ap"], ["l", "ive"], ["l", "ied"], ["l", "ady"], ["m", "l"], ["m", "ing"], ["m", "ates"], ["m", "ass"], ["m", "iz"], ["m", "ik"], ["m", "hrd"], ["n", "g"], ["n", "ct"], ["n", "ies"], ["n", "abl"], ["n", "ish"], ["n", "urse"], ["n", "iti"], ["o", "g"], ["o", "ms"], ["o", "gy"], ["p", "et"], ["p", "ict"], ["p", "us"], ["p", "age"], ["p", "ip"], ["p", "ite"], ["p", "tion"], ["p", "fms"], ["q", "r"], ["r", "ene"], ["r", "ational"], ["r", "ash"], ["s", "in"], ["s", "an"], ["s", "it"], ["s", "low"], ["s", "ik"], ["t", "d"], ["t", "u"], ["t", "al"], ["t", "is"], ["t", "el"], ["t", "ith"], ["t", "um"], ["t", "ics"], ["u", "str"], ["w", "if"], ["w", "age"], ["in", "come"], ["in", "depend"], ["in", "fus"], ["in", "mates"], ["th", "opa"], ["en", "ough"], ["an", "ch"], ["on", "going"], ["re", "su"], ["re", "im"], ["re", "mon"], ["re", "fra"], ["re", "search"], ["re", "strict"], ["re", "fus"], ["er", "ation"], ["er", "ry"], ["al", "and"], ["al", "one"], ["al", "oo"], ["or", "ies"], ["or", "am"], ["or", "thopa"], ["st", "ance"], ["st", "ations"], ["ed", "ics"], ["ent", "y"], ["ent", "ity"], ["ent", "ered"], ["ic", "ra"], ["ic", "ate"], ["ic", "ian"], ["il", "t"], ["ar", "un"], ["ar", "by"], ["ar", "ting"], ["and", "hra"], ["ro", "h"], ["ro", "ute"], ["ro", "oms"], ["as", "ible"], ["to", "o"], ["to", "w"], ["to", "col"], ["to", "ll"], ["is", "ha"], ["is", "kcon"], ["co", "ding"], ["ch", "ak"], ["ch", "hat"], ["ch", "erry"], ["be", "red"], ["be", "come"], ["id", "s"], ["id", "ating"], ["ct", "ive"], ["me", "t"], ["me", "ter"], ["me", "gh"], ["me", "etha"], ["me", "las"], ["su", "re"], ["su", "ction"], ["su", "med"], ["su", "rpl"], ["su", "ffer"], ["el", "led"], ["pro", "mp"], ["pro", "tocol"], ["sh", "as"], ["sh", "ram"], ["ce", "remon"], ["ill", "ustr"], ["un", "less"], ["un", "spent"], ["un", "bund"], ["all", "ied"], ["de", "pri"], ["de", "leg"], ["sp", "o"], ["sp", "ect"], ["sp", "ia"], ["ut", "es"], ["se", "m"], ["se", "ction"], ["will", "ing"], ["ag", "ric"], ["ag", "greg"], ["ag", "ogy"], ["with", "draw"], ["ad", "he"], ["ad", "ult"], ["ac", "les"], ["et", "s"], ["con", "form"], ["con", "sec"], ["con", "tain"], ["lo", "g"], ["lo", "gist"], ["lo", "dge"], ["no", "s"], ["ul", "ging"], ["ri", "age"], ["ter", "ti"], ["ter", "ns"], ["res", "sion"], ["am", "b"], ["la", "unch"], ["ex", "cl"], ["he", "ar"], ["he", "ight"], ["comp", "ly"], ["comp", "ens"], ["comp", "lied"], ["pl", "ication"], ["ha", "vel"], ["im", "c"], ["im", "med"], ["red", "uc"], ["iv", "rs"], ["................................", "...................."], ["ir", "on"], ["up", "s"], ["od", "isha"], ["hospital", "isation"], ["insu", "fficient"], ["go", "a"], ["so", "ya"], ["par", "am"], ["tr", "end"], ["pre", "vent"], ["pre", "authorization"], ["ass", "am"], ["mo", "s"], ["mo", "therapy"], ["20", "22"], ["end", "ar"], ["end", "oscopy"], ["ma", "har"], ["ma", "hend"], ["us", "es"], ["us", "ers"], ["du", "cherry"], ["du", "plication"], ["mon", "ey"], ["out", "lay"], ["ii", "e"], ["af", "ide"], ["spec", "ify"], ["min", "ist"], ["iz", "ing"], ["op", "ting"], ["cla", "uses"], ["man", "ual"], ["man", "ipur"], ["other", "wise"], ["wh", "ite"], ["inc", "reas"], ["inc", "urred"], ["low", "er"], ["get", "s"], ["ne", "arby"], ["time", "lines"], ["do", "or"], ["do", "ub"], ["ge", "ars"], ["ge", "etha"], ["sa", "mple"], ["can", "cer"], ["resp", "ectiv"], ["gu", "le"], ["gu", "jar"], ["sal", "ient"], ["pay", "out"], ["ack", "nowled"], ["work", "s"], ["work", "force"], ["cost", "s"], ["cost", "ing"], ["lin", "ess"], ["ator", "s"], ["gra", "de"], ["special", "ity"], ["special", "ities"], ["ear", "mark"], ["pr", "ise"], ["requi", "res"], ["education", "al"], ["appl", "ied"], ["201", "1"], ["201", "2"], ["qual", "i"], ["qual", "ify"], ["ob", "tain"], ["anc", "ing"], ["process", "ed"], ["pa", "ce"], ["pa", "kor"], ["set", "s"], ["................................................................", "........"], ["pres", "ident"], ["dis", "put"], ["dis", "semin"], ["treat", "ments"], ["ign", "ment"], ["oper", "ation"], ["fund", "ed"], ["there", "on"], ["fe", "w"], ["fe", "ature"], ["fe", "male"], ["fe", "asible"], ["sc", "itation"], ["des", "pite"], ["execut", "e"], ["cr", "uc"], ["progra", "ms"], ["vi", "kas"], ["rol", "led"], ["del", "hi"], ["decision", "s"], ["author", "ised"], ["tra", "dition"], ["hold", "ers"], ["ener", "gy"], ["tw", "enty"], ["criter", "ion"], ["mit", "ras"], ["pat", "terns"], ["ret", "urn"], ["cap", "ital"], ["gener", "ate"], ["tri", "b"], ["tri", "ya"], ["12", "3"], ["eng", "ine"], ["post", "ers"], ["char", "ged"], ["mar", "ch"], ["mar", "riage"], ["stud", "ying"], ["hc", "s"], ["sur", "prise"], ["ell", "ence"], ["period", "ically"], ["record", "ing"], ["document", "ation"], ["car", "t"], ["mod", "es"], ["val", "ue"], ["prior", "ities"], ["design", "ed"], ["design", "ate"], ["bet", "ter"], ["cal", "endar"], ["hand", "le"], ["hand", "icra"], ["employ", "ed"], ["mission", "s"], ["lif", "ted"], ["pol", "y"], ["insp", "ections"], ["enrol", "l"], ["ind", "ulging"], ["sto", "ck"], ["br", "anch"], ["nut", "ri"], ["attend", "ant"], ["valid", "ate"], ["policy", "holders"], ["digital", "ization"], ["who", "m"], ["who", "le"], ["who", "se"], ["grant", "s"], ["sett", "le"], ["institution", "al"], ["review", "s"], ["col", "labor"], ["cover", "s"], ["cover", "ing"], ["cont", "amin"], ["fa", "x"], ["ran", "ge"], ["suppl", "ies"], ["resol", "ve"], ["phys", "ician"], ["cond", "ition"], ["cond", "itions"], ["cor", "pus"], ["ura", "d"], ["olo", "g"], ["constru", "cted"], ["link", "age"], ["recommend", "ing"], ["recommend", "ation"], ["erg", "arh"], ["ak", "a"], ["ak", "sh"], ["cs", "ir"], ["experi", "enced"], ["week", "ly"], ["certific", "ates"], ["particip", "ate"], ["particip", "ant"], ["particip", "ants"], ["nic", "u"], ["registr", "y"], ["matter", "s"], ["indic", "ating"], ["indic", "ators"], ["facilit", "ating"], ["purpo", "ses"], ["flex", "ible"], ["che", "motherapy"], ["dev", "ice"], ["bu", "ilt"], ["lab", "s"], ["refer", "ral"], ["art", "is"], ["produ", "ct"], ["produ", "ction"], ["submission", "s"], ["colle", "ct"], ["colle", "ge"], ["colle", "ctor"], ["encoura", "ge"], ["prepar", "atory"], ["iat", "ely"], ["ped", "agogy"], ["ext", "ent"], ["mal", "afide"], ["susp", "ic"], ["den", "y"], ["sl", "ip"], ["radi", "ation"], ["ian", "s"], ["satis", "factor"], ["ash", "tra"], ["abs", "ence"], ["econom", "ically"], ["photo", "s"], ["39", "7"], ["lac", "s"], ["lim", "it"], ["ot", "p"], ["entit", "led"], ["promo", "ting"], ["market", "ing"], ["constit", "ute"], ["just", "ice"], ["lar", "ge"], ["ple", "ase"], ["tent", "ative"], ["rect", "ification"], ["rect", "ify"], ["miss", "i"], ["enh", "ancing"], ["loc", "ated"], ["tele", "vision"], ["match", "ing"], ["couns", "elled"], ["conven", "ience"], ["down", "load"], ["transfer", "red"], ["material", "s"], ["fill", "ed"], ["sign", "ing"], ["super", "vis"], ["super", "vision"], ["strateg", "ic"], ["conn", "ect"], ["exper", "t"], ["doctor", "s"], ["........................................................................................................", "....."], ["dsd", "p"], ["eas", "y"], ["remo", "ve"], ["contri", "but"], ["exc", "ellence"], ["sour", "ce"], ["regard", "s"], ["elect", "ric"], ["kar", "hi"], ["kar", "nat"], ["mu", "ch"], ["scan", "ner"], ["remain", "s"], ["alay", "a"], ["compet", "itions"], ["contin", "ue"], ["transpar", "ency"], ["ker", "ala"], ["nag", "aland"], ["pu", "mp"], ["pu", "ducherry"], ["tool", "s"], ["devi", "ation"], ["exemp", "ted"], ["exemp", "tions"], ["subsequ", "ently"], ["effectiv", "ely"], ["clean", "liness"], ["transport", "ation"], ["associ", "ated"], ["modification", "s"], ["medi", "ation"], ["display", "ed"], ["intervent", "ion"], ["intervent", "ions"], ["cardi", "ology"], ["integr", "ation"], ["functional", "ity"], ["technic", "ians"], ["photograph", "s"], ["deploy", "ed"], ["electron", "ic"], ["advertise", "ment"], ["advertise", "ments"], ["hal", "wa"], ["mil", "est"], ["madh", "ya"], ["sab", "ut"], ["vend", "ors"], ["ang", "ana"], ["reput", "ed"], ["altern", "ative"], ["cooper", "ative"], ["seek", "ing"], ["paper", "less"], ["highligh", "ting"], ["correct", "ive"], ["crimin", "al"], ["campa", "igns"], ["bi", "har"], ["bar", "ring"], ["glo", "ves"], ["je", "ev"], ["mb", "bs"], ["nst", "is"], ["pal", "wal"], ["psu", "s"], ["run", "ning"], ["sen", "ior"], ["onboard", "ed"], ["spe", "ak"], ["sever", "ity"], ["septe", "mber"], ["exa", "mple"], ["expres", "s"], ["redu", "ce"], ["partner", "ship"], ["supp", "lementary"], ["pean", "ut"], ["trip", "ura"], ["calcul", "ation"], ["achieve", "ment"], ["dynam", "ic"], ["langu", "age"], ["discrepanc", "ies"], ["ah", "l"], ["aay", "og"], ["bho", "jan"], ["blo", "od"], ["brough", "t"], ["cgh", "s"], ["der", "iv"], ["dil", "igence"], ["dad", "ra"], ["fil", "ed"], ["fron", "t"], ["gul", "gule"], ["jing", "les"], ["jhar", "khand"], ["kad", "du"], ["kio", "sk"], ["miz", "oram"], ["nies", "bud"], ["rene", "wal"], ["rash", "triya"], ["sin", "ce"], ["sik", "kim"], ["tis", "garh"], ["tel", "angana"], ["tith", "i"], ["independ", "ent"], ["infus", "ion"], ["resu", "scitation"], ["refra", "ctive"], ["arun", "achal"], ["chak", "ki"], ["chhat", "tisgarh"], ["megh", "alaya"], ["surpl", "us"], ["promp", "t"], ["ceremon", "y"], ["illustr", "ation"], ["unbund", "ling"], ["depri", "ved"], ["spect", "acles"], ["agric", "ulture"], ["consec", "ut"], ["terti", "ary"], ["compens", "ation"], ["havel", "i"], ["immed", "iately"], ["trend", "s"], ["mahar", "ashtra"], ["mahend", "ergarh"], ["respectiv", "ely"], ["gujar", "at"], ["earmark", "ed"], ["pakor", "a"], ["dissemin", "ation"], ["cruc", "ial"], ["tradition", "al"], ["engine", "ering"], ["collabor", "ation"], ["satisfactor", "y"], ["karnat", "aka"], [")", ";"], ["0", "24"], ["0", "17"], ["1", "15"], ["1", "14"], ["2", "11"], ["4", "18"], ["5", "th"], ["5", "96"], ["6", "3"], ["6", "7"], ["6", "27"], ["7", "6"], ["7", "9"], ["7", "24"], ["8", "4"], ["8", "00"], ["8", "45"], ["8", "26"], ["9", "1"], ["9", "3"], ["9", "4"], ["9", "9"], ["_", "h"], ["_", "id"], ["a", "w"], ["a", "ment"], ["a", "fo"], ["a", "ware"], ["b", "il"], ["b", "and"], ["b", "ab"], ["b", "ag"], ["b", "ig"], ["b", "has"], ["b", "ice"], ["b", "urs"], ["b", "rel"], ["b", "ine"], ["b", "loc"], ["b", "ins"], ["c", "y"], ["c", "ing"], ["c", "ate"], ["c", "ess"], ["c", "am"], ["c", "red"], ["c", "iv"], ["c", "ip"], ["c", "sc"], ["c", "ast"], ["c", "ame"], ["c", "ise"], ["c", "used"], ["c", "ulated"], ["c", "ater"], ["c", "na"], ["d", "1"], ["d", "2"], ["d", "3"], ["d", "4"], ["d", "5"], ["d", "7"], ["d", "ation"], ["d", "ers"], ["d", "ry"], ["d", "bt"], ["d", "aksh"], ["e", "ver"], ["e", "ase"], ["e", "qual"], ["f", "y"], ["f", "at"], ["f", "ake"], ["f", "ts"], ["f", "aster"], ["f", "ssa"], ["g", "g"], ["g", "i"], ["g", "re"], ["g", "ho"], ["g", "ral"], ["g", "one"], ["g", "mail"], ["g", "reen"], ["g", "uru"], ["g", "ade"], ["h", "ill"], ["h", "ist"], ["h", "indu"], ["h", "ry"], ["h", "thal"], ["h", "_id"], ["i", "e"], ["i", "y"], ["i", "ation"], ["i", "ally"], ["i", "yoj"], ["j", "a"], ["j", "ag"], ["j", "ha"], ["j", "yo"], ["j", "ee"], ["j", "uly"], ["j", "ala"], ["j", "jar"], ["k", "u"], ["k", "v"], ["k", "al"], ["k", "ill"], ["k", "its"], ["k", "ely"], ["k", "now"], ["k", "ala"], ["k", "nowled"], ["k", "esar"], ["k", "umar"], ["l", "er"], ["l", "and"], ["l", "ity"], ["l", "iv"], ["l", "ig"], ["l", "ight"], ["m", "ation"], ["m", "ill"], ["m", "ess"], ["m", "ri"], ["m", "any"], ["m", "ud"], ["m", "ts"], ["n", "r"], ["n", "u"], ["n", "it"], ["n", "el"], ["n", "ess"], ["n", "ity"], ["n", "stru"], ["n", "ings"], ["n", "urses"], ["n", "cs"], ["o", "di"], ["o", "red"], ["o", "mm"], ["p", "in"], ["p", "ill"], ["p", "ies"], ["p", "ec"], ["q", "ps"], ["r", "ence"], ["r", "ant"], ["r", "ating"], ["r", "td"], ["s", "q"], ["s", "is"], ["s", "am"], ["s", "la"], ["s", "ip"], ["s", "was"], ["s", "igned"], ["s", "app"], ["s", "ory"], ["s", "istence"], ["s", "wif"], ["t", "v"], ["t", "in"], ["t", "at"], ["t", "ag"], ["t", "ur"], ["t", "iv"], ["t", "ational"], ["u", "be"], ["u", "ary"], ["u", "ence"], ["u", "jala"], ["v", "b"], ["v", "r"], ["v", "and"], ["v", "ation"], ["v", "ict"], ["v", "ia"], ["w", "th"], ["w", "id"], ["w", "ant"], ["w", "ants"], ["x", "ii"], ["y", "et"], ["z", "gar"], ["\u201d", "."], ["\ufb01", "cation"], ["in", "al"], ["in", "it"], ["in", "and"], ["in", "ste"], ["in", "quiry"], ["th", "in"], ["th", "ings"], ["th", "ya"], ["en", "ed"], ["en", "ak"], ["the", "ter"], ["the", "ory"], ["on", "ic"], ["on", "boarding"], ["on", "tal"], ["re", "ve"], ["re", "ad"], ["re", "ction"], ["re", "pl"], ["re", "pa"], ["re", "validation"], ["re", "vision"], ["re", "mind"], ["re", "construct"], ["re", "fresh"], ["re", "vise"], ["at", "ible"], ["at", "least"], ["at", "tract"], ["at", "ulated"], ["at", "tained"], ["at", "ively"], ["er", "a"], ["er", "ies"], ["er", "ature"], ["er", "cise"], ["al", "ed"], ["al", "ment"], ["al", "le"], ["al", "ia"], ["al", "leg"], ["al", "ysis"], ["al", "ignment"], ["or", "and"], ["or", "ig"], ["or", "ated"], ["st", "ay"], ["st", "ated"], ["st", "ating"], ["st", "ances"], ["st", "ics"], ["st", "arting"], ["ed", "ic"], ["ent", "ities"], ["it", "able"], ["it", "ative"], ["it", "ored"], ["ing", "ly"], ["es", "day"], ["ic", "k"], ["ic", "ing"], ["ic", "ip"], ["ic", "ations"], ["ic", "ulture"], ["il", "ation"], ["il", "legal"], ["ar", "is"], ["ar", "ise"], ["ar", "jee"], ["and", "i"], ["and", "ed"], ["ro", "w"], ["ro", "ster"], ["ro", "logy"], ["ro", "tational"], ["ro", "zgar"], ["as", "ha"], ["to", "p"], ["to", "ge"], ["to", "pic"], ["ment", "ed"], ["ment", "ary"], ["is", "ck"], ["le", "ver"], ["le", "ly"], ["le", "af"], ["le", "ft"], ["co", "ol"], ["co", "mes"], ["co", "vid"], ["ch", "a"], ["ch", "at"], ["ch", "ances"], ["be", "ti"], ["be", "li"], ["be", "os"], ["be", "gin"], ["be", "cause"], ["be", "long"], ["be", "hal"], ["id", "ab"], ["id", "ge"], ["id", "ences"], ["me", "a"], ["me", "enak"], ["ra", "w"], ["ra", "re"], ["ra", "ther"], ["ra", "ises"], ["ra", "ksha"], ["su", "o"], ["su", "itable"], ["su", "raksha"], ["el", "it"], ["el", "ab"], ["pro", "min"], ["pro", "ctor"], ["sh", "ed"], ["sh", "own"], ["sh", "tik"], ["ill", "or"], ["un", "g"], ["un", "ified"], ["un", "paid"], ["un", "war"], ["un", "load"], ["un", "even"], ["un", "hygienic"], ["un", "employed"], ["mp", "r"], ["mp", "tions"], ["all", "ot"], ["de", "st"], ["de", "te"], ["de", "red"], ["de", "os"], ["de", "pos"], ["ab", "und"], ["ab", "nhpm"], ["ab", "ilities"], ["di", "ence"], ["di", "vision"], ["di", "version"], ["di", "stance"], ["di", "alysis"], ["fic", "ary"], ["sp", "ot"], ["sp", "read"], ["se", "en"], ["se", "ven"], ["se", "aled"], ["ve", "mber"], ["per", "man"], ["rain", "ts"], ["ag", "ious"], ["ho", "ol"], ["ho", "ard"], ["ho", "using"], ["ho", "wa"], ["are", "d"], ["ad", "mit"], ["ad", "mitted"], ["ad", "jud"], ["ap", "s"], ["ap", "par"], ["ac", "y"], ["ac", "id"], ["ac", "ade"], ["ur", "g"], ["ur", "rence"], ["con", "gr"], ["con", "fed"], ["con", "currently"], ["con", "sumed"], ["und", "ue"], ["no", "ver"], ["no", "vember"], ["ul", "ent"], ["ul", "ate"], ["ul", "ters"], ["ul", "sory"], ["um", "brel"], ["res", "aid"], ["res", "kill"], ["am", "ar"], ["qu", "est"], ["qu", "ick"], ["ex", "ha"], ["ex", "po"], ["ex", "tre"], ["ex", "act"], ["ex", "plan"], ["ex", "ceed"], ["ex", "istence"], ["ex", "ercise"], ["he", "is"], ["he", "ard"], ["comp", "reh"], ["comp", "atible"], ["comp", "ulsory"], ["ha", "thin"], ["im", "ate"], ["im", "aging"], ["im", "medi"], ["ti", "al"], ["ti", "ated"], ["cent", "ric"], ["ir", "respective"], ["ir", "da"], ["up", "time"], ["up", "front"], ["ig", "ilator"], ["od", "op"], ["hospital", "ization"], ["bene", "ficary"], ["go", "t"], ["go", "als"], ["po", "uts"], ["po", "ush"], ["po", "shtik"], ["under", "gone"], ["ive", "red"], ["comm", "and"], ["emp", "ow"], ["so", "lely"], ["par", "ent"], ["par", "li"], ["par", "ish"], ["par", "iyoj"], ["tr", "ies"], ["pre", "val"], ["pre", "tation"], ["ass", "isting"], ["mo", "e"], ["mo", "to"], ["mo", "tiv"], ["int", "ra"], ["int", "end"], ["int", "ention"], ["ev", "ent"], ["ev", "ents"], ["ev", "idences"], ["fo", "cused"], ["us", "age"], ["mon", "itored"], ["ly", "ing"], ["out", "s"], ["out", "line"], ["out", "door"], ["out", "ube"], ["ud", "ing"], ["gh", "iy"], ["not", "ed"], ["min", "utes"], ["iz", "ations"], ["iz", "ontal"], ["op", "d"], ["op", "hthal"], ["requ", "iring"], ["inst", "alment"], ["form", "er"], ["form", "ing"], ["form", "ula"], ["form", "ulation"], ["form", "ulate"], ["li", "e"], ["li", "kely"], ["dec", "lar"], ["government", "s"], ["assess", "ed"], ["assess", "ing"], ["inc", "ub"], ["part", "ite"], ["avail", "ed"], ["ne", "at"], ["ne", "ph"], ["proc", "uring"], ["fin", "ally"], ["do", "s"], ["ge", "m"], ["ge", "ared"], ["wor", "ming"], ["au", "dience"], ["sha", "kti"], ["gu", "e"], ["gu", "ard"], ["mem", "bered"], ["mem", "orand"], ["med", "ically"], ["cook", "er"], ["add", "l"], ["lin", "ders"], ["gra", "ding"], ["gra", "dation"], ["guid", "ing"], ["ensu", "res"], ["pr", "ice"], ["pr", "inter"], ["pr", "ises"], ["pr", "icing"], ["ist", "s"], ["fol", "ic"], ["pri", "mar"], ["rece", "ption"], ["bo", "o"], ["bo", "x"], ["rele", "asing"], ["rele", "ases"], ["201", "6"], ["approv", "ing"], ["detail", "ing"], ["ob", "tained"], ["ob", "lig"], ["10", "8"], ["10", "45"], ["................................................................", ".."], ["pmk", "k"], ["cum", "stances"], ["tre", "ated"], ["act", "ually"], ["mis", "match"], ["ann", "ually"], ["dis", "eas"], ["dis", "crimin"], ["dis", "burse"], ["dis", "charged"], ["dis", "odi"], ["oper", "ated"], ["oper", "andi"], ["sub", "stan"], ["sub", "sistence"], ["target", "ing"], ["30", "6"], ["30", "200"], ["ph", "cs"], ["ph", "onic"], ["15", "0"], ["des", "cribed"], ["account", "ing"], ["inform", "ing"], ["cr", "ash"], ["igh", "ts"], ["inter", "n"], ["inter", "face"], ["inter", "pretation"], ["lock", "down"], ["mdm", "hry"], ["del", "ivered"], ["author", "izations"], ["nor", "mal"], ["pe", "howa"], ["chan", "ge"], ["chan", "ging"], ["gro", "wth"], ["rec", "urrence"], ["pack", "s"], ["pack", "ed"], ["propo", "sing"], ["additional", "ities"], ["certification", "s"], ["tend", "er"], ["present", "ation"], ["vis", "ible"], ["ret", "riev"], ["ret", "ention"], ["aga", "in"], ["cap", "able"], ["over", "come"], ["over", "seen"], ["tri", "partite"], ["condu", "ctor"], ["struct", "ures"], ["12", "6"], ["12", "th"], ["14", "7"], ["14", "48"], ["14", "397"], ["char", "ging"], ["coun", "ter"], ["coun", "tries"], ["sur", "ve"], ["sur", "vey"], ["ell", "ate"], ["check", "ing"], ["appro", "ver"], ["record", "ed"], ["pend", "ency"], ["inv", "igilator"], ["commun", "ications"], ["install", "ed"], ["transa", "cted"], ["categor", "ized"], ["categor", "ize"], ["cas", "ual"], ["mod", "us"], ["mod", "ules"], ["stand", "ing"], ["stand", "alone"], ["prior", "ity"], ["design", "ation"], ["lear", "nings"], ["organ", "ising"], ["cal", "ories"], ["cal", "culated"], ["cro", "ss"], ["call", "s"], ["call", "ed"], ["call", "ing"], ["hand", "ling"], ["hand", "holding"], ["employ", "ing"], ["employ", "ers"], ["employ", "ee"], ["employ", "ees"], ["annex", "ures"], ["view", "s"], ["view", "ed"], ["18", "0"], ["18", "49"], ["specific", "ally"], ["final", "ising"], ["lif", "ying"], ["enrol", "ments"], ["25", "54"], ["25", "845"], ["aid", "s"], ["cre", "ating"], ["fore", "ign"], ["inte", "gral"], ["sto", "re"], ["staff", "ing"], ["allow", "ances"], ["plan", "s"], ["................................................................................................", "..."], ["br", "idge"], ["person", "nel"], ["16", "0"], ["pla", "stic"], ["institut", "ed"], ["24", "0"], ["cl", "imate"], ["compli", "ant"], ["compli", "mentary"], ["manag", "ed"], ["differ", "ence"], ["ek", "yc"], ["review", "ed"], ["mention", "ing"], ["dee", "o"], ["dee", "ms"], ["cont", "ents"], ["cont", "agious"], ["track", "ed"], ["place", "ments"], ["public", "ation"], ["public", "ity"], ["ban", "arjee"], ["pul", "ler"], ["chair", "s"], ["help", "ing"], ["nutrition", "ist"], ["leg", "ally"], ["mob", "ility"], ["bed", "s"], ["cor", "respon"], ["cor", "rection"], ["represent", "ation"], ["demand", "ed"], ["olo", "gist"], ["recommend", "atory"], ["var", "iation"], ["capac", "ities"], ["fed", "eration"], ["fur", "nish"], ["counc", "illor"], ["test", "s"], ["test", "ed"], ["experi", "ences"], ["week", "s"], ["conv", "ene"], ["conv", "ener"], ["teach", "ing"], ["distrib", "ut"], ["indic", "ate"], ["19", "96"], ["19", "95"], ["hon", "our"], ["initi", "ally"], ["app", "ellate"], ["print", "able"], ["facilit", "ation"], ["organiz", "e"], ["open", "ing"], ["apply", "ing"], ["vide", "o"], ["ask", "ed"], ["nsq", "c"], ["joint", "ly"], ["29", "596"], ["operational", "ize"], ["bl", "er"], ["arran", "ged"], ["search", "ing"], ["ext", "ant"], ["200", "8"], ["fraud", "ulent"], ["mal", "da"], ["mal", "practices"], ["enu", "e"], ["enu", "es"], ["assu", "red"], ["assu", "mptions"], ["susp", "ended"], ["assist", "ance"], ["reason", "able"], ["maintain", "s"], ["maintain", "ing"], ["chairperson", "ship"], ["ca", "theter"], ["him", "self"], ["anal", "ys"], ["coordin", "ation"], ["show", "s"], ["adv", "ice"], ["const", "raints"], ["trans", "ition"], ["model", "s"], ["princip", "le"], ["princip", "als"], ["wa", "ste"], ["thera", "pies"], ["nomin", "ate"], ["book", "let"], ["book", "lets"], ["capt", "ure"], ["pract", "ical"], ["purch", "ased"], ["purch", "asing"], ["purch", "ases"], ["budget", "ing"], ["96", "2"], ["96", "99"], ["jan", "am"], ["jan", "ta"], ["jan", "uary"], ["tim", "ings"], ["real", "ity"], ["ater", "al"], ["cho", "os"], ["mater", "nity"], ["determin", "ing"], ["lar", "gest"], ["resul", "ting"], ["prog", "ression"], ["proper", "ly"], ["pos", "itive"], ["poss", "ess"], ["poss", "ibility"], ["popul", "ated"], ["introdu", "ced"], ["option", "s"], ["recip", "e"], ["legisl", "ative"], ["enh", "anced"], ["atta", "ched"], ["com", "bine"], ["method", "s"], ["prote", "in"], ["tele", "phonic"], ["quant", "ities"], ["intim", "idating"], ["focus", "sed"], ["authent", "ic"], ["authent", "icated"], ["match", "ed"], ["conven", "ed"], ["black", "listing"], ["relax", "ations"], ["bill", "ing"], ["dr", "one"], ["dri", "ver"], ["dri", "ven"], ["fail", "ure"], ["sign", "ature"], ["meas", "urement"], ["super", "intend"], ["appoint", "ment"], ["here", "with"], ["mach", "ines"], ["workshop", "s"], ["modal", "ity"], ["........................................................................................................", "."], ["entitlement", "s"], ["mer", "a"], ["mer", "its"], ["thir", "ty"], ["remo", "val"], ["off", "ences"], ["enter", "prises"], ["raj", "ma"], ["alloc", "ate"], ["dep", "th"], ["abh", "inand"], ["cons", "ist"], ["clear", "ly"], ["gas", "es"], ["pw", "ds"], ["pass", "ed"], ["table", "ts"], ["wal", "let"], ["forward", "ed"], ["adjust", "ed"], ["temp", "erature"], ["compet", "ent"], ["........................................................................................", "."], ["........................................................................................", "...."], ["curr", "ent"], ["birth", "day"], ["birth", "days"], ["diagno", "sis"], ["diagno", "stics"], ["66", "2"], ["bre", "ach"], ["bre", "ast"], ["bre", "ak"], ["cul", "ar"], ["far", "m"], ["far", "idab"], ["rev", "ocation"], ["rev", "enue"], ["orient", "ed"], ["devi", "ations"], ["poor", "a"], ["poor", "i"], ["weight", "age"], ["dispo", "se"], ["standardiz", "ed"], ["bri", "gade"], ["dra", "ft"], ["long", "er"], ["mapp", "ed"], ["mix", "ed"], ["simp", "lifying"], ["escal", "ated"], ["associ", "ations"], ["hot", "el"], ["adap", "tation"], ["admin", "istered"], ["accep", "ting"], ["accept", "ance"], ["look", "ing"], ["........................................................", "......"], ["mother", "s"], ["inclus", "ion"], ["inclus", "ive"], ["inclus", "ivity"], ["integr", "ity"], ["particul", "ars"], ["technic", "s"], ["flag", "ged"], ["flag", "ship"], ["writ", "ing"], ["deploy", "ment"], ["electron", "ics"], ["girl", "s"], ["aim", "ed"], ["mil", "k"], ["mun", "g"], ["mun", "icip"], ["madh", "mik"], ["nat", "ural"], ["sab", "ha"], ["sol", "ar"], ["vend", "or"], ["wall", "s"], ["ins", "ights"], ["reput", "e"], ["celebr", "ated"], ["celebr", "ations"], ["semin", "ars"], ["irregular", "ities"], ["major", "ity"], ["highligh", "ted"], ["................................................................................................................", "....."], ["incentiv", "ised"], ["campa", "ign"], ["analy", "se"], ["analy", "tics"], ["individual", "s"], ["scrutin", "y"], ["scrutin", "ized"], ["64", "vb"], ["dp", "cs"], ["din", "ing"], ["ga", "in"], ["lad", "wa"], ["ni", "elit"], ["phas", "ed"], ["phas", "es"], ["vo", "te"], ["ww", "w"], ["infl", "uence"], ["onco", "logy"], ["onco", "logist"], ["reh", "ab"], ["remed", "y"], ["remed", "ial"], ["aler", "t"], ["aler", "ts"], ["stre", "am"], ["depo", "t"], ["depo", "ts"], ["defa", "ult"], ["defa", "ulters"], ["version", "s"], ["apr", "il"], ["apr", "ons"], ["conne", "ction"], ["conne", "ctions"], ["confir", "mation"], ["umar", "i"], ["reser", "ved"], ["reser", "vation"], ["........................................", "..."], ["understand", "ing"], ["import", "ance"], ["import", "ant"], ["what", "sapp"], ["incorpor", "ation"], ["observ", "es"], ["pamph", "let"], ["pamph", "lets"], ["interrup", "tion"], ["appear", "ing"], ["involve", "ment"], ["wait", "ing"], ["achiev", "ing"], ["biscu", "it"], ["biscu", "its"], ["recru", "it"], ["recru", "ited"], ["360", "3"], ["5g", "m"], ["burn", "t"], ["cir", "cumstances"], ["dro", "pouts"], ["dut", "y"], ["fif", "o"], ["fact", "s"], ["hor", "izontal"], ["hild", "ren"], ["jack", "et"], ["ng", "no"], ["pet", "ro"], ["pict", "ures"], ["pip", "ed"], ["rational", "e"], ["sit", "u"], ["tu", "esday"], ["tum", "or"], ["reim", "burs"], ["restrict", "ion"], ["refus", "al"], ["orthopa", "edic"], ["roh", "tak"], ["tow", "n"], ["protocol", "s"], ["deleg", "ated"], ["spo", "ons"], ["sem", "i"], ["aggreg", "ation"], ["adhe", "red"], ["contain", "ers"], ["log", "ic"], ["amb", "it"], ["launch", "ing"], ["excl", "uding"], ["reduc", "ed"], ["param", "edics"], ["minist", "er"], ["increas", "ed"], ["doub", "le"], ["quali", "\ufb01cation"], ["disput", "es"], ["trib", "une"], ["handicra", "fts"], ["poly", "technics"], ["nutri", "ents"], ["contamin", "ation"], ["olog", "ical"], ["artis", "ans"], ["product", "ivity"], ["suspic", "ious"], ["supervis", "ing"], ["contribut", "ing"], ["electric", "ity"], ["pump", "s"], ["milest", "ones"], ["jeev", "an"], ["speak", "ing"], ["ahl", "_h"], ["deriv", "ed"], ["consecut", "ively"], ["017", "2"], ["211", "306"], ["aw", "p"], ["afo", "resaid"], ["bil", "ateral"], ["big", "ger"], ["bhas", "ker"], ["cy", "linders"], ["civ", "il"], ["cip", "et"], ["fssa", "i"], ["gre", "ater"], ["guru", "gram"], ["hill", "y"], ["hist", "ory"], ["hindu", "stan"], ["jag", "ran"], ["jha", "jjar"], ["jyo", "ti"], ["ku", "cha"], ["kv", "k"], ["kal", "yan"], ["knowled", "ge"], ["kesar", "i"], ["mud", "ra"], ["nr", "hm"], ["nu", "h"], ["nstru", "ctions"], ["pin", "ni"], ["pill", "ars"], ["rant", "ed"], ["sam", "iti"], ["swas", "thya"], ["swif", "t"], ["tag", "ged"], ["tur", "nover"], ["vand", "ana"], ["vict", "im"], ["init", "ial"], ["inste", "ad"], ["reve", "als"], ["repl", "y"], ["repa", "ir"], ["revision", "s"], ["remind", "er"], ["reconstruct", "ive"], ["refresh", "er"], ["alle", "ged"], ["alleg", "ation"], ["orig", "inal"], ["toge", "ther"], ["isck", "on"], ["lever", "aging"], ["leaf", "y"], ["begin", "ning"], ["behal", "f"], ["meenak", "umari"], ["elab", "orated"], ["promin", "ent"], ["unwar", "ranted"], ["unload", "ing"], ["allot", "ted"], ["depos", "ited"], ["abund", "ant"], ["division", "al"], ["hoard", "ings"], ["adjud", "icate"], ["congr", "atulated"], ["umbrel", "la"], ["reskill", "ing"], ["quest", "ions"], ["exha", "usted"], ["explan", "ation"], ["compreh", "ensive"], ["immedi", "ate"], ["irda", "i"], ["poush", "tik"], ["parli", "ament"], ["parish", "ad"], ["pariyoj", "na"], ["preval", "ent"], ["motiv", "ated"], ["ghiy", "e"], ["ophthal", "m"], ["declar", "ation"], ["incub", "ator"], ["neph", "rology"], ["memorand", "um"], ["primar", "ily"], ["diseas", "es"], ["discrimin", "ation"], ["disburse", "ment"], ["disodi", "a"], ["1448", "024"], ["25845", "22"], ["correspon", "ding"], ["superintend", "ent"], ["abhinand", "an"], ["faridab", "ad"], ["municip", "al"], ["reimburs", "ed"], ["ahl_h", "h_id"]]}}